[PAD]
[UNK]
[CLS]
[MASK]
[SEP]
!
"
#
$
%
&
'
(
)
*
+
,
-
.
/
0
1
2
3
4
5
6
7
8
9
:
;
=
>
?
@
[
\
]
_
`
a
b
c
d
e
f
g
h
i
j
k
l
m
n
o
p
q
r
s
t
u
v
w
x
y
z
##l
##a
##c
##i
##e
##r
##o
##u
##p
##m
##s
##t
##n
##k
##v
##g
##f
##d
##w
##x
##h
##0
##y
##b
##j
##q
##9
##6
##z
##1
##2
##4
##8
##5
##3
##7
##in
##ing
##it
##er
##an
th
on
##le
##at
of
##ar
the
in
##re
an
##ith
with
##ro
##en
and
##al
##ed
to
st
##om
##es
##ding
##as
##on
##ow
##ck
##et
is
##or
##ir
##ch
##ou
##is
man
##la
##op
##ting
sit
##ra
##all
##el
##oo
##id
##il
ne
##ot
wh
##ers
##ol
##rou
stan
sitting
##ig
##ge
are
##ut
##ic
##ea
##wo
##ard
##ab
at
##king
bu
sk
##ite
pe
##ying
standing
##ople
##ide
tra
##eb
people
two
##ur
##oard
wom
##xt
##able
sh
next
white
##ver
it
##nt
ro
woman
##ass
##nd
pla
##ff
pl
##ile
hol
##lo
table
stre
ch
do
cou
##her
street
la
be
##ome
fro
fi
##ood
bo
that
par
holding
top
##own
grou
##se
sm
##ce
##erson
some
##ack
person
bat
##ate
##arge
##ant
large
##ad
##am
##ri
gir
down
cat
wat
##and
up
pi
fl
##eld
##ion
ri
sn
group
##ru
car
dog
out
##ng
##igh
field
##ve
near
snow
ten
wal
small
##nis
clo
train
##ign
his
##lack
front
##ul
park
tennis
##ke
gr
black
bus
bas
sur
##room
##row
##ee
sign
##ain
##ell
##st
room
##ure
##ree
riding
##ay
##ind
##ple
kit
bl
air
grass
##oung
red
side
ph
plate
by
##ight
water
##ent
young
##ue
loo
##round
bath
##dy
surf
##ving
##ss
##ph
##board
buil
bed
baseb
##one
building
##ink
##reen
baseball
##air
skat
has
##ds
play
##mb
com
##side
while
se
playing
##pt
walking
##ther
skateb
bathroom
su
##zz
##yc
for
food
her
co
hor
blue
##ct
pizz
##th
##ear
kitch
##age
kitchen
##ycle
skateboard
back
bea
mot
wood
green
li
po
##aff
ele
giraff
parked
boy
pizza
##gh
other
ski
looking
motor
##ie
##im
##get
##ture
over
##tle
beach
##ity
eat
##ilet
clock
ben
toilet
bear
##phant
couple
pic
##ere
des
elephant
##ach
ca
##ran
##irt
girl
##em
road
con
men
##rel
##ild
wa
ball
comp
wear
picture
##ane
##led
city
gam
mou
umb
dis
umbrel
motorc
flying
##lass
board
al
wearing
bench
tow
##ris
##cks
there
sl
player
motorcycle
##ptop
wind
laptop
tru
##ld
bir
##ore
int
##veral
laying
zeb
from
comput
##ong
##ill
child
sits
as
three
##sh
##rown
sand
wooden
##um
##ine
##rough
window
sink
glass
airp
gra
##nder
##ter
through
their
##ping
op
area
game
fris
boat
chair
frisb
around
##ellow
brown
eating
##un
one
yellow
##ks
old
stop
sc
light
tre
hand
ta
computer
##ped
horse
##oto
several
lit
photo
desk
under
de
##ort
##ice
wall
giraffe
##ast
##ery
cover
ra
##ase
ve
open
sp
##ull
##est
cake
##way
close
living
truck
sw
##rt
fire
re
##cc
flo
frisbee
##ross
ban
col
##ses
surfboard
phone
lot
outside
##gg
rea
bow
covered
count
di
bun
##acket
umbrella
each
##ation
trees
##eat
cow
##sa
##illed
##ich
##ove
cell
suit
very
banan
beh
behind
##sing
##eep
cl
filled
off
oran
##pla
its
court
##ground
sky
##ap
cut
little
many
cont
##ching
ab
bowl
tree
flow
ap
##ves
##up
ma
show
fen
into
##ead
toget
couch
##ction
together
##qu
sandw
##if
##iew
sandwich
bi
bunch
airpl
mount
run
##ly
background
dri
te
so
view
##rick
plat
##alk
skis
##ors
big
kite
dou
this
mir
shirt
sheep
stands
mirro
inside
pre
##ag
displa
##era
oce
hot
##ub
##walk
bird
hy
stu
le
pie
##ts
##ffic
##ry
go
ocean
##rant
##ang
lu
hyd
##les
veget
hydrant
traffic
##ras
##two
zebra
mid
swing
##ket
##do
pass
##orm
##dle
racket
##eddy
floor
##other
display
airplane
teddy
counter
vegetable
##ook
ref
##the
wi
##oth
##ffer
mirror
##eth
orange
##fferent
another
dirt
women
anim
sidewalk
different
##ies
mountain
animal
stand
##ress
##iling
##our
##ous
jum
tall
##etting
che
flowers
##ruit
plane
met
bab
##ner
sa
parking
tower
fruit
hit
tracks
bro
horses
along
hill
im
br
giraffes
baby
day
##ets
ground
gu
head
vase
mo
##vel
fence
graz
##ble
##par
grassy
being
hang
snowboard
full
fa
wave
cars
vegetables
ita
zebras
fe
rest
##ey
stuff
##ren
station
slop
##ari
##rying
ad
middle
##kes
elephants
##ated
bananas
##ick
dress
un
##ven
ready
cup
image
tie
en
dr
cam
pro
##ip
##ment
taking
hat
cor
##ator
crow
them
##uring
box
driving
##ggage
vari
bes
##pe
stuffed
cross
##ave
signs
crowd
##ning
ac
sun
##ult
##oli
piece
lo
##rol
##iger
ar
bike
##rush
long
##ess
wor
##ade
brocc
grazing
across
above
kn
travel
beside
refr
bot
skiing
guy
luggage
prepar
refriger
##ust
skate
broccoli
snowy
em
wine
door
key
kid
cows
##elf
hanging
don
during
##ese
color
##iting
##cor
refrigerator
tele
holds
four
##eng
glasses
bic
cle
wii
slope
past
pink
##ten
##urn
doing
rem
lea
tal
##uts
##las
herd
pole
##ted
camera
children
rac
pair
##ries
pap
track
rid
keyboard
double
decor
passeng
##ces
##pty
oven
##out
##ful
##vis
empty
going
bicycle
ser
bag
per
high
cutting
cab
walk
umbrellas
watching
who
cur
mar
pot
looks
bar
control
kites
trick
##vision
jumping
television
bre
smiling
bottle
##form
socc
corner
##cker
talking
pit
ag
din
posing
catch
suitc
soccer
airport
vide
traveling
video
tv
dogs
swinging
stove
set
boats
##lee
chairs
remot
topped
att
colorful
buildings
apple
using
lady
all
getting
body
##umb
contain
##idge
birds
cabin
##ans
pain
hou
pat
plates
mon
night
##ainst
##oes
against
fore
various
##eel
coff
##quet
brick
animals
##us
throw
me
##ps
##arding
jet
app
paper
##ft
som
item
##ac
book
watch
meat
home
carrying
lin
him
river
banana
rail
pol
coffee
##ced
cheese
can
ram
##clo
##ian
pull
tray
lots
##ething
slee
bedroom
##urant
something
resta
##ored
restaurant
##ash
##iss
he
waiting
motorcycles
drink
pitch
##der
or
clou
dish
row
metal
##ool
plant
bears
##erse
players
##alf
decker
##oll
runway
mu
##ak
tile
bal
racquet
tablea
##clos
about
outdo
skateboarder
toy
brush
##mp
enclos
res
carro
running
skier
dough
shower
mic
remote
pile
##ases
lights
slic
##ial
busy
##ish
##there
surfer
store
##gra
hel
pur
interse
face
rain
mouth
like
lying
ramp
sil
##ark
house
items
screen
passenger
intersection
##ive
dressed
##arm
someone
line
streeta
doughn
##oc
toward
##ty
seat
rock
monit
male
surfing
##ather
gre
numb
half
##gs
no
##ges
pan
photogra
tub
am
hands
##raw
boo
shown
batter
ha
preparing
##ones
slice
rides
##we
sciss
dark
made
##ire
pulling
look
colored
##cl
##hic
ty
##ler
gray
way
mat
surround
sleeping
vehic
silver
jacket
number
##te
##ert
cloth
photograph
she
zoo
##uce
tooth
suitcase
##oarding
bridge
microw
enclosure
##ny
##man
##iz
post
##ife
bet
hair
##eath
##ating
##pp
surrounded
kids
scissors
##ond
fielda
##ween
##to
forest
between
##ale
donuts
##ched
##aning
showing
basket
##ooking
bread
watera
meal
lined
pill
bright
decorated
##phone
##ect
sal
few
##iform
uniform
adult
carrots
knife
##ace
walks
##ved
##anes
arm
buses
boys
outdoor
microwave
mult
older
blan
scen
furn
##iture
cand
##old
##ron
furniture
star
purple
hu
bran
ex
skiers
stat
dock
branch
##lic
##pes
blanket
stick
grey
attach
girls
oranges
stri
shop
##cing
tri
gather
pillow
pick
have
cloudy
tea
mouse
waves
displayed
##ocol
##atoes
cabinets
throwing
eng
coming
attached
incl
chocol
lake
monitor
fork
##day
comm
fre
##ily
chocolate
making
onto
leaning
ob
clean
feed
fem
crossing
helm
inclu
##ings
##inking
clear
shelf
##oon
dining
perform
ho
salad
gi
##sp
stone
painted
elect
birth
##dge
cook
flower
market
sha
country
drinking
scene
cats
hitting
birthday
##ime
lush
fla
seen
work
##sed
resting
towards
pub
rocks
##int
##by
female
##people
##ken
multi
windows
public
tables
fruits
balla
##art
sunny
##astic
##are
lay
setting
beaut
fries
meter
donut
##ents
ass
##ary
##utter
##di
##ance
##jo
plastic
apples
office
##brush
moving
shot
squ
leaves
beautif
pen
stopped
cre
bush
##three
trail
been
walls
ur
edge
tom
part
bikes
teeth
helmet
enjo
platform
path
books
working
stack
smile
beautiful
snowboarder
##ric
##dd
##lection
##oot
pictures
toothbrush
short
sub
towel
undern
fresh
underneath
bel
ste
trying
not
topping
ride
##ety
surfboards
yard
cart
assort
dist
pa
slices
fri
af
statue
draw
ti
##ally
sing
##pped
turn
##he
carri
##ug
fam
roll
wild
van
wire
lap
mountains
having
wet
skateboarding
computers
pieces
placed
ent
nice
##ling
perched
doughnut
new
shows
##inal
vehicle
shore
##bo
pepp
eaten
##several
dire
passing
lamp
time
##ca
gar
mil
catcher
##ist
sty
appl
put
controller
cooking
sandy
police
ey
##dern
hotel
neck
vases
they
dry
family
##ats
pizzas
conc
oth
applian
##ines
##ition
dinner
land
nin
##ix
##py
##ches
tiled
modern
brushing
sea
trains
types
others
end
just
##ides
##ame
reading
town
chick
backgrounda
##top
##ely
##ement
ninten
trun
nintendo
##bor
##ound
##iti
pitcher
##onea
benches
base
watches
engine
single
hea
pret
kind
##ming
##ley
frisbe
cent
chicken
mounted
gear
##ject
ped
take
du
variety
graff
##cial
enjoying
tan
##ized
case
buildinga
curb
beer
jump
sail
##wn
egg
equ
##tub
tarm
##tain
cellphone
left
bathtub
boards
sauce
##cea
guys
laptops
trucks
pretty
##vers
flat
sof
rack
wheel
##here
tarmac
graffiti
after
see
pack
phones
pad
hotdo
##ush
##vea
performing
ce
gathered
passengers
cabinet
appliances
bowls
dess
tricks
shoes
toppings
cute
fenced
##road
##ures
##ger
fly
swim
containing
doughnuts
arran
well
glo
feat
pas
rooma
##less
multiple
##stru
sch
place
pedest
tran
grassa
stair
win
curtain
plants
##idea
flies
pasture
feeding
fish
team
ear
fr
break
equip
railroad
carriage
concre
rice
##ronic
##ins
spoon
dirty
beacha
below
poin
right
##pack
##etwo
onion
foot
match
candles
roada
##illa
##po
including
##end
##elves
##head
electronic
school
##its
firepla
##light
cattle
clutter
steel
takes
shaped
##iding
##ini
platea
center
among
pul
##ession
distance
concrete
ble
backpack
striped
##intage
##rash
crowded
sofa
##que
##ower
polar
wr
bags
pulled
bottles
treesa
art
nearby
##this
fan
wra
poles
vintage
surface
loc
beds
painting
catching
huge
chur
##ber
##me
boxes
object
trunk
qu
sandwiches
##kea
cream
direction
sou
##sc
gold
woods
offic
feet
planes
##rist
##ages
church
ju
prof
giant
style
fireplace
fridge
alone
equipment
skateboards
stea
round
pillows
served
but
##ged
##ips
suitcases
sliced
del
##ural
both
reaching
##ball
##ical
plays
putting
sinks
where
five
drinks
##anding
floating
##essional
fo
##alm
##de
##ycl
container
poses
bushes
wed
atop
tomatoes
mess
away
##lin
tour
clothes
bicycles
sticking
smiles
##eather
##ll
taken
prepares
lays
asian
hay
##land
##ethe
dishes
phonea
##ato
##vent
spe
serving
professional
potatoes
vehicles
##ti
pedestri
##ercial
##elling
##lers
stain
staring
stall
##ious
blo
surfers
form
airplanes
##mas
dev
bak
##fast
##owing
snowa
##lasses
commercial
##iness
fash
legs
reflection
smo
led
beda
cement
fashion
space
which
pose
christ
##cy
##set
gamea
let
rust
##rench
##ons
breakfast
design
##ban
##iny
business
mother
boarda
##unch
christmas
subway
##read
stacked
rug
har
flag
shorts
roo
##ward
farm
ump
##cking
##ular
dessert
foods
lone
trash
tur
straw
##ract
appear
##ugh
##boarding
same
cooked
urinal
french
load
gard
##stwo
umpire
cluttered
kitten
##urry
seated
ham
highway
soup
##ars
serve
docked
outf
swings
games
garden
hard
swimming
boarding
sung
get
##lder
square
ret
sunglasses
mach
fun
##per
pepper
hotdog
overl
##struction
wedding
##bb
##ends
##ults
pool
bur
windowa
couches
##ual
##tom
##ige
##let
low
##itary
blender
##ists
##ock
##ens
ter
##fe
shad
hors
##liner
say
##ils
controllers
drawn
##ned
cra
kneel
##some
##ants
cli
##br
##sidea
drives
kick
parka
clocks
prod
fra
ind
signal
assortment
ice
##oni
restroom
ceiling
cla
desktop
jumps
rocky
walla
flock
##ape
eyes
shelves
wooded
hold
does
hillside
sho
skya
facing
appro
adults
##red
skies
stainless
acc
military
##io
ba
lad
ext
ledge
##ident
lawn
##nic
##fore
tou
fall
was
courta
free
outdoors
pointing
##made
##vy
eats
desert
##hou
card
##kers
prop
onions
before
lunch
nap
##na
todd
frisbeea
##go
##artment
compet
event
##vert
cru
approach
fooda
make
##irc
vegg
neat
chop
mod
clouds
##ates
advert
##uit
doors
cost
roof
##ef
coat
##ump
says
advertis
aira
fashioned
tw
stru
##arrow
circ
doll
##des
eggs
we
construction
disc
##ative
attem
arranged
##icks
party
assorted
mini
cups
type
costum
spr
fig
inter
##cture
landing
snowboarding
race
umbrellaa
broken
pond
trans
things
picnic
##ading
decoration
closed
##phones
##vid
toddler
##xing
treea
bottom
electric
##oman
overlooking
mix
##four
##cakes
port
lett
##cting
##ering
tied
kneeling
gate
##key
carrot
graze
cakes
boarder
deck
pasta
narrow
wash
##self
cage
arms
fight
must
##sthe
##ia
##pet
mag
chef
wide
##uc
##ony
##az
hap
monitors
##ium
friends
stairs
overhead
closeup
messy
gl
leash
skating
reads
indo
##ctor
glove
##da
himself
anti
orn
steps
stra
rider
net
sides
bever
plain
##ially
pots
##rop
fancy
sale
sweat
##many
ket
appears
##uter
steam
ship
##so
walkway
pract
floors
fencea
pr
chain
kitchena
leather
ties
areaa
suits
smart
carpet
veggies
transit
cap
speed
cas
pos
rela
##ount
##ican
foreground
good
sunset
bite
laptopa
rackets
features
bathrooma
partially
model
stor
##uff
##ns
sport
sheet
trailer
loaded
stret
action
mis
##very
drive
still
beard
paw
##ker
urban
pepperoni
held
palm
shou
pastries
mush
##ired
pee
teen
push
what
pants
toast
##ooter
mushroom
clothing
antique
##ib
skateboarda
wrapped
war
refle
position
photos
colors
doorway
##ina
toilets
scooter
hole
towels
outsidea
##aster
beneath
mirrora
vis
lies
tomato
winter
racing
##ne
##ators
topa
pea
##ope
propell
hilla
outfit
gets
power
grill
pastry
commuter
kinds
baked
##ives
machine
##ence
candle
makes
corn
structure
dra
##ise
railing
oceana
sprink
sy
contains
houses
giving
shade
bull
flip
class
supp
daya
harbor
used
pier
sinka
apartment
fighter
##co
decorative
##ring
##cket
##nish
heads
petting
island
bencha
device
cakea
wets
lid
blurry
spea
grow
##ighting
blond
fur
##laz
waters
self
peppers
sill
includes
##sting
##ork
sized
sort
##gull
wavea
##tens
##ier
rests
comf
smoke
siz
##nding
spot
toys
##ggy
pedestrians
you
racketa
bou
##yard
##tered
leading
med
opened
mud
mound
pres
garage
foll
tracksa
containers
chips
pizzaa
prepared
mit
use
togethera
vanity
seagull
lettuce
##be
je
vest
bac
stunt
leaf
nood
deska
papers
streets
produce
shar
scul
floora
##idential
upside
lift
hall
##pl
bacon
utens
writing
waits
grounda
mug
rural
##gon
milk
##house
##bs
flight
ripe
shopping
turned
pave
sculpt
indi
beans
signa
strawber
tiny
bunches
amer
pavement
hood
##pping
handa
brightly
##itten
alongside
##kin
cond
dep
residential
log
paddle
##yclist
groom
##alle
rear
meters
climb
happy
##ray
frosting
hats
cal
##ital
stream
lamb
##ield
patio
lem
##bage
##ange
rainy
touching
##erial
personal
##gging
##ows
smaller
soda
block
pans
laid
remotes
urinals
sem
##estwo
nose
ketch
cub
##iv
##gre
##woman
##ining
cour
leg
branches
##eds
itself
sailing
kicking
riders
term
wetsuit
persons
displaying
ducks
butter
tent
loading
cara
lines
ketchup
built
stationa
##act
##med
deep
oppo
practic
##bile
##mo
pup
enclosed
ladies
indoor
##fl
officer
terminal
##ette
mustard
american
beige
toileta
only
##usage
platter
six
##ird
sliding
sausage
snowboards
ador
glaz
doga
##pting
juice
##cra
approaching
balan
mas
##ature
##aper
goes
eye
costume
##ms
rais
##gged
throws
trays
pickup
uses
##wing
here
leans
directions
elder
sto
pipe
##ster
purse
flags
fried
noodles
wait
uniforms
individ
ow
collection
ornate
mushrooms
semi
gas
pin
##ible
barn
##ath
mitt
laugh
cons
paint
posted
most
dresser
written
char
hangs
sheets
tiea
deli
##yclists
freez
sweater
propeller
sim
##ior
liqu
growing
##iff
buildingsa
chaira
crosswalk
pulls
attempting
elderly
rolling
##boy
stad
parade
decorations
beverage
pour
##ral
runs
bride
guit
tank
sailbo
##craft
peoplea
individual
ol
tong
##omot
##ully
fake
suppl
passes
jets
neatly
stadium
##als
##rounding
spread
##gan
##erry
surrounding
kitea
comple
greens
micro
gent
hous
if
##cted
spect
locomot
relaxing
utensils
##els
flor
formation
supplies
##tless
bending
curled
lam
citya
handle
##scape
fast
##ked
potted
transp
##bi
##irtless
goats
pet
##ser
life
patter
baskets
tax
missing
##ton
roses
thema
how
##ues
ona
roadway
paved
por
tool
siting
snack
cameraa
##site
airliner
aircraft
hear
sold
shirtless
tracka
locomotive
bell
crou
##mall
sticks
packed
##ended
##seum
falling
##uffy
chees
duck
##ness
##ka
motion
checker
shoe
gentle
dim
capt
coucha
sports
glazed
##bow
slopea
museum
cele
##com
these
ang
##cked
separ
wagon
coll
booksh
performs
practicing
guitar
celebr
without
haired
course
arrange
sculpture
##hill
##inish
##erts
toss
##ices
shall
##rance
rows
piled
section
tail
##cake
aw
sidewalka
adj
toothbrushes
dead
##iers
##og
othera
floral
##umer
cycle
fir
##nel
bucket
talks
jeans
arrangement
trol
tops
shallow
cro
##case
##ware
soft
hum
##ila
also
cupboard
steep
##sted
wheels
fing
rope
ingre
flown
telephone
pedestrian
lamps
ingredi
##essor
garbage
delic
foc
##ta
##alla
toaster
##cts
covering
##asea
##ethere
bata
cop
rub
selling
stool
##eback
electronics
frame
opposite
paras
balls
cool
##bed
##asing
slopes
homemade
images
return
mus
##bur
##erries
sniff
jetliner
plan
travels
exh
selfie
gro
##ered
patch
curtains
spectators
da
us
##abit
cupcakes
pitching
aut
##ctive
counters
horseback
freezer
##line
buff
hits
wires
hotdogs
##allen
tongue
icing
numer
tu
remo
fallen
fluffy
skateboarders
marble
muff
tab
aslee
competition
cones
headphones
##ertain
newsp
pushing
puppy
asleep
##ooks
stuck
objects
habit
skirt
##umin
##lit
motorbi
shirts
strawberries
lab
pictured
##ooked
faces
workers
visible
ingredients
string
neon
mixed
na
##wood
downhill
stoplight
exp
washing
mop
chin
stud
snowboarders
organ
gathering
checkered
##ways
whole
golden
mirrors
rolls
frosted
rep
##usk
blonde
climbing
bent
##amic
tennisa
balloon
habitat
tast
wears
reaches
far
wing
##men
featuring
tiles
entrance
furnish
##black
coach
##aged
moves
officers
horsea
transport
##oned
##sth
##ondon
stickers
obser
magn
london
range
cargo
shoulder
pouring
au
##ough
bul
carries
##ental
moutha
shiny
bank
surfboarda
even
hers
##grou
chil
covers
stee
blankets
landscape
shadow
napkin
olives
itthe
great
##ountain
batting
countera
sprinkles
condim
first
delicious
##ending
holder
someones
jar
##os
##orter
blowing
sau
potato
cookies
liquid
loung
##van
bare
rainbow
laughing
ahead
tun
##car
hambur
housea
exhib
jo
name
##ied
##time
conf
figur
cr
fountain
pige
arch
beef
enjoy
prin
checking
cleaning
##urf
gravel
opening
hills
indic
lighting
thin
blow
goat
pickle
cardboard
trav
polea
fishing
miniature
shru
hima
##aked
interior
steeple
sidea
##ded
shape
grilled
motorcyclea
saf
mobile
dow
##lage
##ured
##ently
surfac
sug
alley
advertisement
weather
##sea
rusty
turning
##group
##wh
##anta
proc
booth
bit
cust
den
##young
##rot
##rial
bunk
cowboy
basketball
dot
##ited
plaid
crust
bookshelf
sad
tire
vol
displays
entertain
teenag
trolley
tabby
located
clay
size
muddy
focus
herself
downt
fold
flooring
catches
accessor
##olored
spin
leag
desserts
cran
lar
own
rad
##iet
countertop
##spital
rusted
depic
travelling
cere
odd
hospital
busa
forward
##thy
unmade
bri
lif
lota
indust
exhibit
cer
dump
jock
mead
story
lane
carts
sec
spray
multic
gloves
magaz
eith
##nect
##ging
##was
scar
trucka
balc
hallway
collar
every
nic
stir
##eting
##iled
chest
backs
controls
attire
matt
frisbees
sharing
microphone
industrial
either
onl
helping
meadow
thrown
posed
brushes
comforter
taxi
ceramic
av
##stem
libr
computera
feeder
system
##most
tools
sugar
custom
main
##ano
neigh
##sthere
uni
groc
library
calm
##fully
words
series
jockey
##lish
##uzz
stage
grapes
driver
following
accessories
league
aerial
biting
calf
ill
stares
newspaper
condiments
##washer
iron
peel
traina
seems
bill
fil
santa
connect
dishwasher
freshly
more
##attered
chasing
watering
susp
almost
designed
cliff
mostly
band
gaz
##hood
para
pancakes
heading
steak
multicolored
nicely
neighbor
serv
sleeps
picking
twin
audi
mattress
fieldtwo
seats
matching
padd
baking
nat
mans
grand
bowla
flowersa
chili
onlook
##asting
##stri
ovena
hugging
foil
tasty
jumb
carsa
apron
mountaina
railway
bouquet
chinese
balcony
cush
dig
##ail
##work
amongst
warm
wings
aband
canop
seagulls
gentleman
pow
##large
comb
burger
cushion
el
##zen
##ility
lighta
advertising
straight
lemon
##atwo
airporta
funny
neighborhood
finish
##esting
##oun
##allic
tractor
arrow
foreign
statues
larger
pri
##ried
ribb
##stand
bya
convers
marina
tva
countryside
sniffing
##isting
cuts
leaving
teams
cig
father
##mer
prepare
order
bakery
buffet
abandoned
thick
beg
intera
metallic
typing
heavy
hamburger
vend
##ters
beara
keyboarda
baggage
heart
cigar
dust
sunlight
trunks
jumbo
fed
tin
##tor
##fro
fixt
chewing
paws
natural
id
picturea
##aste
attempt
tim
##olf
resort
formal
driveway
dimly
cases
jers
tries
##amp
horns
disp
chopped
folded
##omeone
##ption
winds
cold
worker
organized
pop
pony
##gress
busses
##stre
##ightly
rampa
framed
circular
entertainment
downtown
jersey
mass
move
sid
poster
candy
hung
castle
mom
##bble
strol
rose
##eman
rivera
turkey
should
connected
emb
##gir
shining
unus
prote
bearded
mask
motorbike
bra
sets
##und
##quets
propped
devices
produ
##ival
bay
##ggles
progress
runwaya
helmets
son
instru
##ersa
##ama
read
dryer
sailboat
##front
cu
ring
##pass
motorcyclist
level
step
surfacea
##chair
guard
besides
owner
hiding
##ute
bund
toothp
obst
tus
##ung
upon
backyard
quiet
##coming
tossing
lounging
canopy
fab
ple
##alley
itan
upa
point
hose
magnets
wit
flood
desc
cafe
savan
nighta
amount
adorable
porch
evening
tunnel
scarf
dusk
golf
roam
tablet
kitty
bik
tricka
storage
reflected
present
obstac
##pher
##mes
##view
##zy
piano
clocka
males
microwa
raised
illumin
furry
thumb
licking
contents
cupcake
camer
monkey
boots
wilder
lang
separate
grocery
powder
rel
##vated
oper
##ift
bikers
##vely
racquets
hardwood
circle
langu
##rain
parrot
lighthouse
saying
bars
strip
##istic
spinach
audience
pu
##person
scattered
tag
rec
##ethree
grazes
squat
friend
chefs
dispens
gri
lear
##ees
##za
##anda
warning
sla
##ened
stran
skiis
heada
crosses
rails
smoking
unique
onlookers
savanna
hom
collage
word
##usting
heal
freight
shaking
balancing
simple
fabric
mel
ori
than
##ord
blind
baseballa
works
barrel
jung
lambs
awa
fair
nam
ins
backa
ears
football
stretching
comfort
finger
music
bikini
jungle
link
pean
ittwo
peeking
##use
##pers
##ddle
vegetablesa
##ounge
ge
talk
need
played
##illing
fauc
thems
polic
sizes
hi
ant
storm
shut
really
bananasa
leafy
delivery
moped
safety
##oe
parach
##ments
peeled
lemons
suspended
thing
ath
hydranta
silverware
belt
##xed
fixing
furnished
volley
ribbon
themselves
lounge
##tru
unc
cookie
figure
fans
hip
ke
##rib
bikea
fighting
pine
ut
##owed
blu
surfs
rece
fenc
skisa
##ipped
boxa
ladder
fest
villa
snea
courtyard
##ooters
shorel
classroom
complete
muffin
nuts
inf
towering
daytime
waya
cereal
skin
reg
clust
goggles
pairs
umbrellasa
screens
haul
drawers
##ught
cupboards
magazine
##orting
doora
wiia
inst
##ebo
##phonea
##ument
cellphones
lean
cornera
too
plaza
tabletwo
gran
boata
stops
scooters
goal
headed
logs
quil
foggy
consisting
process
bats
closet
grin
vegetation
baga
barri
photographs
army
sticker
obstacle
healthy
panda
##aking
##ze
##ination
airl
##oney
soap
project
knit
trim
##bbing
speakers
stovea
strange
##rat
buns
doub
##lash
points
beverages
crane
tat
##eap
shel
##ells
slightly
scissor
pickles
rustic
eu
stock
shri
bedsp
comes
motorcyclists
canoe
noteb
wrapp
cigarette
tusks
berries
det
fat
valley
##where
##hol
watertwo
##ifl
##anger
lob
broccolia
meeting
peace
charact
numerous
bedspread
act
dan
puts
##af
##gie
arri
##close
restauranta
##cloth
shops
pedestal
positioned
students
observing
wading
softball
pigeons
oriental
kept
dem
bathing
eleg
caul
swe
crossed
slicing
layer
tourists
approaches
paddling
shoreline
goo
pump
##val
stem
##raying
grasstwo
waterway
conve
slow
skyline
catchers
##ashed
##toon
exc
exam
direct
conversation
faucet
airlines
fry
maj
toothpaste
wilderness
shrimp
will
arena
phon
grabbing
reach
material
reflecting
balloons
vendor
attempts
caulifl
bin
cone
lis
may
any
##icle
beak
desks
colle
fully
leaping
##wards
illuminated
peanut
granite
elegant
wre
wand
forks
waving
umbrell
spac
monument
silhou
fol
kis
min
coast
caught
##unk
drawing
##ucumb
classic
repair
service
cucumb
ru
tight
trough
##ole
whit
##icop
streettwo
glassa
lighted
tuba
pens
button
patterned
##sthree
teenager
village
crash
ware
##right
sideways
knives
helicop
mall
trop
##vest
##ined
raft
diam
themed
leads
married
designs
cheesy
flooded
dispenser
kay
clos
herding
cobble
zooa
had
##pon
str
##ots
outs
elephanta
heard
bald
sailboats
second
unusual
euro
diamond
mov
factor
knif
somethinga
much
note
afric
owl
cans
mes
##gu
tablethe
downa
blur
skater
greenery
split
##ific
refrigeratora
boogie
portra
indoors
strapped
snacks
cauliflower
tropical
drying
ostri
streetthe
groups
seas
spa
recor
dried
brid
fac
numbers
interesting
print
bad
roman
tasting
##my
within
stopping
deer
nightstand
bridgea
winea
freeway
goods
confer
helicopter
##cast
atten
tablecloth
poss
overpass
conso
splash
##angular
celebrating
massive
roaming
convey
now
##pid
##hed
stable
##labor
roast
upright
cartoon
limb
handsa
tags
##aging
english
##boat
individuals
daugh
factory
cel
hal
##dition
##xes
##ities
itthere
spraying
cellular
canal
wavesa
turns
shades
costumes
transportation
windsurf
##eapple
europe
histor
airbor
compan
lightsa
keys
garnish
ornam
autom
fixtures
doubles
##bag
buggy
kitesa
suitcasea
spoons
indicating
##white
utility
handing
mi
##met
##ider
recl
sandwicha
text
anothera
storea
photographer
gives
pineapple
human
vasea
##ky
##vi
##aring
##ably
othertwo
##apan
unf
polka
piles
soldiers
bor
cree
love
##vari
##itch
##oored
boarders
arounda
rect
unlo
cloud
depot
adjusting
thumbs
language
notebook
console
bis
tiss
##ls
##cat
##oping
elevated
tape
dec
float
knee
weird
figurine
brief
grinding
eag
hooked
ren
waff
##five
stance
bean
tents
basin
depar
mac
tex
brit
prot
enclosurea
rocksa
winding
speaking
sharp
##plane
ident
learning
portrait
mashed
lakea
##sticks
backd
compartment
alco
showera
bagel
brancha
cleaned
extended
pattern
airborne
japan
keep
naked
##rome
blood
drivers
wicker
hangar
world
televisiona
posts
include
butt
savannah
conference
come
crib
##ater
##ssome
wake
oppon
##ations
canad
flav
terrain
quilt
alcohol
elabor
frying
grown
ris
##ode
##ma
##athe
babies
rowing
pathway
teenage
geese
kissing
eight
pug
tar
##mon
##eter
##ico
snu
carry
##stone
overcast
dest
mousea
togethertwo
headboard
prov
panel
happ
toasted
begin
festival
##ditional
backdrop
third
##vering
cathed
metro
amid
youth
squatting
hauling
listen
daughter
cathedral
nur
##mit
##tra
##alt
site
seven
##shirt
chairsa
worn
drawer
farmers
crack
rot
##den
##idy
shap
##andel
##eeled
jackets
photographed
message
signals
chained
digital
blueb
cast
##too
such
lie
towera
##ills
asph
##ational
logo
booka
seating
extra
depicting
uncooked
wrapper
jars
##ws
##hand
##eball
figurines
billboard
##various
british
ot
sol
##kins
deser
towing
gravy
##sages
##ethis
glassesa
curve
scenic
enter
##scra
tourist
circus
products
sneakers
pig
##uits
##bing
##ables
shines
rob
china
carous
knees
trio
roller
package
cabinetsa
retur
medium
heat
stom
##ised
placing
skyscra
attract
sails
artistic
kettle
practice
adorned
shuttle
closely
conveyor
returning
##ners
ones
chrome
signsa
cellphonea
imp
barbe
barbed
aged
remotea
special
competing
customers
stroller
ger
hind
##cars
pears
cata
grab
opena
press
marked
meats
windowsill
distan
backpacks
strawberry
printer
major
carousel
stomach
pay
##gers
thre
##owers
places
selection
pocket
camp
traya
raina
stripes
commode
yarda
##someone
cluster
lobby
sweet
directly
african
asphalt
foli
##life
##inea
anch
##ops
##ution
##elly
force
sauc
stationary
donkey
drinka
rocking
expo
##deled
powdered
inspe
tattoo
call
rop
sat
were
##father
##ately
when
skil
fieldthe
super
cola
treestwo
check
luggagea
potter
entering
cruise
soldier
crates
deserted
foliage
cooks
gy
##ient
##tie
##food
boardwalk
towers
macar
snowboarda
##ulti
emer
##eseveral
help
chopsticks
stretched
calico
ostrich
mixt
opponent
eas
thru
##otic
frozen
suv
podi
wallsa
midair
dressing
curious
meas
memb
subur
stepping
newly
fog
electrical
cubicle
##flowers
crouching
european
mixture
dash
gour
nest
tiger
vac
wo
yog
##ively
##ula
##bu
insidea
##amb
care
##ains
woodsa
intently
##ummy
scrat
array
tube
wheelchair
stalls
balances
angle
archite
radio
puddle
names
snugg
shapes
podium
ferry
gun
##tim
##green
plains
streetlight
caket
##ccup
checks
envi
bicyclist
keyboards
maroon
dual
staircase
##pod
extre
dusty
outsid
listening
##gen
##rong
##child
chandel
##acks
##aded
suite
slide
dip
runner
unit
loaf
sleep
planter
##ronment
partly
craft
antel
infant
leaned
rectangular
texting
macaroni
environment
lower
rings
##hor
mane
##iday
##amas
pies
caf
raw
divid
displaya
guest
cupa
papera
feeds
racks
portion
spotted
caption
stools
tuxed
muffins
express
priv
warehouse
dug
gall
tee
##een
tort
necks
##cept
disk
lego
screena
starting
paj
artwork
paintings
bushesa
indian
claim
syru
rubbing
grandfather
##street
cudd
operating
policeman
try
##cue
##aseball
##ooth
shear
cherry
waterthe
sum
coke
stopa
tagged
spat
apart
hata
bookcase
shots
wildlife
harness
touch
excited
spacious
blurred
syrup
ed
map
##con
##multi
##gn
inform
peering
grassland
floats
dipping
serves
walka
curved
itemsa
uniformed
outfits
speeding
stretches
sprinkled
parasol
barrier
border
skillet
hut
ox
san
##ales
##ana
##rent
needs
outa
walled
hera
lodge
quick
competit
flipping
##amboo
bamboo
si
##lain
ships
##loy
dozen
younger
sanda
firetru
hitter
facea
unri
teetha
remodeled
skinny
demon
cobblestone
elaborate
tidy
##field
##ora
plu
plush
signage
capped
menu
windowsa
sheepa
monitora
shrubb
silhouette
pajamas
york
##mar
##suit
##ino
##icip
##urt
mountainous
refrigerators
engaged
stacks
entree
sofas
letter
figures
parasa
crate
pigeon
shrubs
athlet
aven
rab
##ose
traditional
holiday
streetan
##celain
ballthe
bowling
biker
tech
diner
clearing
carriages
glowing
movie
tissue
identical
fit
jelly
##obile
##por
##pris
##small
##nes
##hree
though
##oose
##utes
##str
skiier
alarm
##shi
treat
viewed
bigger
barren
bananaa
washer
stunts
##inished
rubber
awaiting
gourmet
shrubbery
heel
jeep
pant
rol
rough
##ara
##orn
somewhere
gaming
mail
united
start
farmer
cooling
parachute
ottom
dam
iced
king
mem
##tched
##bird
infl
stump
##icap
rode
grind
motel
mountainsa
bicyclists
lining
pitched
notes
curba
juic
foam
porcelain
microwavea
blinds
dancing
possib
unfinished
spatula
##multiple
fer
file
peng
pork
rout
tying
##pan
##fts
##onal
fronta
waterf
kitchent
##umn
handicap
real
cutter
animala
coffe
##erseveral
stores
engines
leavesa
penc
separated
navy
teenagers
shoulders
hiking
knifea
automobile
protest
japanese
gym
suburban
possibly
lead
moored
pane
sle
##etti
parts
cock
roadside
windsh
treats
photoa
swung
viewing
dirta
faced
##izon
stripped
squar
chickens
equipped
spots
##sthis
celery
done
junk
mural
tro
##pad
##ether
upward
towed
scra
handbag
wallp
bunny
emp
balance
haw
teaching
silly
lifting
##giraff
plent
hipster
bisc
reno
attractive
rabb
pengu
bid
que
tor
##semb
sushi
horizon
beachtwo
compact
scru
opens
clown
suna
locked
ovens
platforma
garlic
casea
bulls
##uzzy
windshield
bla
cit
cot
dun
letting
rh
sam
##off
bends
fruita
breaking
attent
mean
forested
appliance
pads
local
blocks
outfield
weeds
powered
cubs
eagle
happily
aff
ave
fle
fut
mer
##aks
##noon
##fo
##bath
##alks
whipped
tram
champ
##rie
horned
lime
smilinga
bottlea
##eathers
tiered
matcha
retrie
falls
hoodie
fingers
bullet
else
unloading
crackers
tuxedo
pir
pil
til
wool
##ua
##yed
wheeled
peas
grouped
outstre
playground
slides
scale
def
maker
adm
ridding
breast
shelfa
crest
steer
afternoon
blocking
decked
crouched
interacting
windsurfing
company
buttons
drop
money
##rit
##ually
##wear
##zens
situ
surpris
roomtwo
alumin
raila
banner
##acent
pitchers
forka
shaggy
delta
##vention
stained
letters
visit
called
adjacent
relish
scissorsa
yogurt
chandelier
fuzzy
lon
poo
##lera
##iw
##fruit
##book
ther
##ckets
##law
##andal
rim
##ulated
poised
spar
##dless
baref
##ocad
blanketa
females
bloom
gliding
##ivity
humming
planea
sausages
ottoman
aluminum
##uss
##atable
##eda
areas
##ically
pipes
coles
coats
##thing
toiletries
##ache
caution
driven
standa
watcha
hudd
stripe
marketa
belong
pointed
##post
followed
avocad
pottery
unripe
avenue
outstretched
coleslaw
jam
oil
page
vic
vandal
##zeb
##inger
tablean
carn
preten
oceant
perches
dinning
watched
news
directing
flatbed
adjust
kayak
halves
depart
provide
german
firetruck
plenty
cass
sled
tem
ul
##sk
##yond
##esa
##asp
beyond
poking
giraffea
convention
gametwo
assemb
handles
diving
contem
cabbage
setup
seata
##izing
booksa
distant
wrap
mixing
bricks
grizz
folding
dugout
parasailing
memor
bru
dom
feathers
sig
##ien
##mat
##iner
##cher
##chet
##ilar
bump
wateran
bedding
skates
asc
aspar
sprou
hilly
sleek
pillar
necktie
sweatshirt
##nequ
similar
saddle
peeling
wandering
distancea
dru
##col
##mot
##vily
##ener
##alled
persona
##estri
club
socks
holes
flowered
patha
stew
steering
##berries
dolls
crouches
embra
##girl
comfortable
stocked
character
quickly
rabbit
bb
pel
pets
##aw
##gy
mannequ
robe
smooth
span
swans
metera
theme
location
cards
measuring
plugged
inflatable
ever
kiw
overs
pou
tug
und
vast
##izz
##ude
##now
##ern
##ense
mantle
##ella
dozens
flash
nearly
##emen
swan
broad
hanger
ramps
pitcha
pana
exit
heavily
symb
raising
complet
bites
gazel
times
melted
strings
anchored
members
##children
private
wallpaper
bidet
champag
situated
vandalized
asparag
cyclist
ipod
lion
##mel
##bl
shed
could
carved
sewing
##tled
shirta
animalsa
leaps
watchinga
marsh
storefront
rocka
trip
squash
shoesa
chopping
portable
consum
furnishings
rolled
waterfall
employ
esc
nuzz
pon
zone
state
share
airline
grasses
backwards
roadtwo
backgroundtwo
social
plated
##anging
corral
leave
current
appet
foresta
layered
lands
bleach
fridgea
kneels
speaker
liquor
cops
interactive
slab
cucumbers
demonstr
sparse
asparagus
19
20
dro
dad
hun
tul
tether
won
##baseball
tablethere
thats
smelling
offa
lung
midst
##dog
horsesa
##park
cord
helps
smiley
carrier
##box
discuss
croiss
mopeds
finished
descri
knitted
threw
antelope
guests
heels
barefoot
casser
bbq
crown
sour
##ection
##vet
##du
##hua
##lete
mana
##eboard
training
busines
cages
roads
abo
legged
unable
##boats
styled
cooler
washington
pal
rise
rasp
##can
##cows
##iving
##band
incoming
##ening
stating
##iring
##ids
ske
##amese
tending
airfield
sex
herbs
coca
horn
altered
soaked
##olli
docka
shaded
price
sculptures
cycles
numerals
motorbikes
dashboard
information
grizzly
symbol
amb
dorm
filling
oval
year
##eled
##yl
##atea
##ett
##ics
##ury
ital
bend
wax
studi
polo
flaming
takeoff
crumb
pushed
boun
buffal
tucked
combination
protective
slowly
college
spagh
coffeea
completely
champagne
casserole
hed
mor
##ex
##vd
##ester
caged
grape
##orted
rapid
broc
##ipping
travelers
mex
bedrooma
intersectiona
strike
towna
nearbya
touches
celebration
labeled
beginning
##gency
##porary
surprised
huddled
signt
studio
brow
cyclists
nut
noth
oly
ran
##using
##iced
paralle
taped
spire
reve
biplane
airplan
cords
colorfully
servea
perf
meatball
cheesecake
stare
shake
squir
dragon
medical
crochet
destination
maneu
nothing
olymp
cable
ges
iphone
yar
upper
basil
conver
wav
eatinga
soaring
serious
perch
canoes
rams
##ished
##dded
landed
accom
veggie
mixer
smartphone
##what
homea
comfortably
creek
blueberries
route
queen
pirate
spaghetti
best
lat
non
rou
##pie
those
instruction
##ouf
##sters
watermel
rele
hydrants
camouf
controllera
posters
shaving
pena
singing
angry
parasail
sauces
presentation
installed
emergency
scratching
rodeo
hour
miss
vert
##ele
oncoming
##igating
shre
fields
limit
backgroundthe
##angle
brand
dresses
meals
clearly
crew
lapa
doughnuta
cabinetry
##ocked
accents
stretch
draped
utensil
opposing
printed
lifts
##guy
parallel
gesture
fin
ome
occup
tanger
yet
##looking
##ela
##fly
##aling
skull
##emet
sporting
refer
camping
featured
cram
twig
carpeted
penguin
buffalo
cemet
deb
fill
give
mill
##oise
##mely
##ki
##olit
itthis
wallet
basea
appar
preparation
marking
cloudless
mugs
entry
artific
quite
machines
makeup
relaxes
nav
fixture
##ebody
shelving
waffles
saucer
##timate
ultimate
yarn
aqu
dol
nes
##cut
##inga
invest
##eties
change
backgroundan
bron
varieties
curly
##ishes
greeting
darkened
states
picked
friesa
toppingsa
friz
ends
jumpa
directional
frames
mustache
consists
musical
begins
instruments
bundle
barrels
athlete
volleyball
regular
stems
canadian
barbecue
summer
siamese
lonely
bleachers
tulips
tethered
perfect
fu
hur
honey
my
ni
oct
rand
sight
##pa
##pic
##ney
##vil
##ased
rod
womana
parent
buildingan
buildingthe
motorized
slip
itsome
traffica
mountainside
moon
nighttime
plantsa
obama
phonesa
official
burning
steamed
relax
bulld
cameras
fencetwo
characters
wrest
season
historic
extremely
expression
damaged
artificial
aim
got
hook
icy
telling
##del
##brown
areatwo
streetthere
coin
##atory
furniturea
shorea
neckla
blend
south
choppy
taxis
bookshelves
arriving
materials
exposed
carnival
shredded
bins
nine
oak
sanding
tick
dogsa
##ples
cozy
roadthe
sco
flowing
lux
boot
haira
wheeler
extends
glides
chains
presents
follows
butterfly
enjoys
stirring
deta
briefcase
department
gad
kicks
##pia
##vation
##his
##rola
##rots
##chan
strewn
fix
somewhat
fieldan
skiiers
deserts
##shop
trek
arched
curvy
shopa
appliancesa
doesn
awning
student
tires
microwaves
policemen
crashing
easy
vacant
victor
sprouts
ambul
morning
mexican
accompan
watermelon
pale
##aget
##cre
##cot
##nam
##gle
##zard
peers
##aint
##pled
airways
lip
gradu
skyan
##othered
jumped
camper
skatepark
decorating
bicyclea
pita
platesa
polit
hello
exiting
##lights
accident
president
balanced
olive
everything
gazing
sided
evergreen
businesses
rounding
omelet
filed
today
strong
beat
trainer
##these
limes
treetwo
spices
metrop
##ipe
themtwo
mechan
##athere
hund
striking
donuta
##rict
submer
carton
lampa
earth
early
##berry
overlooks
medic
vests
sniffs
label
dotted
countertops
nursing
architecture
##horses
tortilla
competitive
attention
wonder
debris
nestled
random
gadget
ic
less
rese
rather
wig
web
##oy
##pot
##res
##rest
##oms
##ory
##irds
parents
smothered
batters
##adult
fieldthree
##stal
roomthe
windy
laptopsa
graph
crowda
racer
somebody
donutsa
turqu
machin
napkins
belly
removed
everyone
jockeys
warming
cucumber
historical
flavored
rotten
hummingbird
avocado
italian
##olitan
resemb
cry
gated
mad
sells
woo
west
yach
##hich
##bee
ina
stones
##lapid
chip
flush
grassthe
cong
grabs
scre
underwear
flore
contra
##ified
kiteboarding
pregn
liner
linea
drinksa
noses
equestri
##liners
gamesa
shady
##uffed
propellers
condu
pours
safari
rising
##eteria
paneled
##zebras
escal
brocolli
cemetery
submerged
turquoise
##lapidated
wines
##dant
##wise
##hus
##bread
ann
##orc
##icea
plaque
##ament
flan
##entwo
backhand
sandwhich
middlea
know
meet
planta
particip
lounges
depicts
paddles
slaw
projector
mesh
waffle
cafeteria
cuddling
##giraffes
raspberries
referee
10
blaz
craw
pac
##cis
##cul
##gly
##glasses
##dit
ofa
then
buying
shoo
blows
alert
##unching
##unches
trey
fences
lovely
ridden
bricked
orch
breada
landa
stairsa
clad
cloudsa
##efully
noodle
cheesea
gentlemen
facility
kiwi
gazelle
sexy
##estern
##picture
pregnant
found
late
lanes
your
##ai
##uses
##dated
##reds
##rofo
stalk
##ister
buy
skills
trailing
beera
##ades
rip
fieldthere
snowtwo
##station
##airy
##rispy
sword
##place
mirrored
broccol
applesa
resid
stars
milking
racka
pasturea
wrapping
kittens
burnt
ledgea
compete
cruis
speeds
drain
dais
indicates
radi
digging
garnished
snuggling
bumper
embracing
appetiz
ambulance
dance
est
faded
kiss
leng
milling
tide
wel
##cock
##uea
##wor
##zing
##lets
##alog
chalk
picks
carving
busted
bedtwo
buildingtwo
seed
wooda
treesthe
courttwo
passed
knick
bagels
bottlesa
paperwork
pillowsa
wireless
lapse
eyed
swims
retail
##ensive
pushes
support
jew
pupp
magazines
instrument
homes
##closeup
splashing
canada
techn
camouflage
metropolitan
cin
dairy
hid
lens
tip
unt
vending
##od
##oid
##tage
##kn
buckets
##urity
##rus
##ortwo
dilapidated
guiding
crowds
knocked
patron
posta
except
commun
district
styl
frisbeetwo
##ready
retro
cracked
partya
sprinkle
wetsuits
##plate
auto
autumn
lifted
shelter
wok
torn
olympic
##elephant
medicine
##rofoam
length
gener
mc
##uting
##itwo
inv
##ilight
##ilies
##erst
shell
tabletop
cherries
buss
grassan
##pthe
foodtwo
already
##rought
windowthe
cowa
lugg
remains
applea
pati
typ
outdoorsa
wilda
passengersa
function
washroom
condition
blocked
raises
deliver
transporting
newspap
processor
security
pumpkin
examining
attending
rises
amidst
skyscraper
inspecting
athletic
admiring
##izza
bronze
crystal
escalator
ga
ginger
mama
pers
##ake
##come
##idger
traila
plow
chat
docks
beers
grouping
sepia
backed
livest
cact
##ements
benchtwo
intric
treesan
teal
swinga
daylight
moss
boxing
sunsh
paste
##tennis
caboose
bottled
deckered
purch
basketa
exotic
doughnutsa
eatena
styrofoam
seafood
##bbles
eventa
twilight
spring
archway
oddly
whitea
tarp
skyscrapers
##bathroom
pretending
##blue
abovea
grapefruit
octop
patrons
livestock
lite
var
##cou
##walks
##birds
##anas
onea
tof
stored
tablesa
##anted
##ions
rooms
surfa
##mbled
walkinga
otherwise
boardsa
grain
handed
spir
diag
##arian
decorate
barb
barely
patrol
mouths
triple
pillowa
hovering
partial
enthus
##ixed
duff
hamm
crafts
claw
napping
salea
mascot
bells
captured
returns
job
vendors
bundled
goose
visitors
poola
tangerines
hundreds
equestrian
ais
cd
gown
jug
rv
rig
sound
##lings
##cess
##min
neut
##ebe
chi
frog
snap
##ycling
overg
##sheep
littered
clip
##play
contest
platters
sunflowers
##urned
walked
marker
barric
linens
hairy
meala
starbu
hovers
tier
eara
formally
trashcan
mounda
calcul
sectional
##little
cerem
arrows
roasted
ornament
reclining
divided
grinds
citrus
tilted
adjusts
##motorc
smoothie
squirrel
##piece
necklace
accompanied
##namon
cinnamon
neutral
dome
find
fist
gone
gates
jack
vent
##aila
##gate
##yellow
thread
##atic
##reme
##enting
##rous
flips
basic
sear
spark
wiping
panor
packages
cabineta
officea
appearing
burrit
holders
stoplights
owners
taxiing
timea
goalie
rugs
ropes
hawk
contemporary
ascending
bulldog
radiator
puppies
typical
aisle
cant
cane
dalm
wou
##cient
##pine
##pizza
##dled
##bic
##back
analog
##rail
##raut
##ote
whis
plac
streetpeople
beca
kits
airstri
waterthere
seeds
sund
beached
eata
sandals
litter
biking
##ormous
enormous
##pective
height
amuse
shepher
incline
carta
necka
seem
stairway
fireplacea
extending
advertisements
washed
reflects
peacock
calves
product
recre
examines
record
##itchen
robot
lettering
squares
pilot
belongings
describe
ranch
airplanea
hidden
starbucks
ceremony
would
because
dang
dvd
gn
pc
ses
tired
wrist
##turned
##kitchen
##bus
##lent
##omen
##ckey
##olog
laund
waling
waterfront
surfboarding
cole
live
beachthe
motorcyclesa
spars
skythe
controla
platetwo
refridger
markers
televisions
monster
linen
hazy
scenery
candies
busha
lamppost
tanker
packaged
tricksa
businessman
shadows
##athree
handleb
numeral
everywhere
availa
conversing
presented
named
creepy
galloping
hedge
cramped
tofu
enthusi
amusement
danger
eff
fran
fine
might
##port
##dress
##itude
##ared
##arella
stay
stere
##omb
##ided
roy
chan
parl
bedthe
licks
windm
taco
racketsa
##icking
knacks
skiinga
meata
##graph
exer
shaved
##dible
vanilla
foal
accent
reflective
climbs
removing
saucea
spinning
radishes
readies
pumpkins
umbrellatwo
recording
heater
pencils
troph
scrub
futon
##color
mannequin
bouncing
conductor
sesame
sparsely
available
gor
hooks
mur
master
native
trot
vi
vane
waste
western
zo
##well
##ha
##bably
inj
ancient
tourn
toned
##oween
##ica
bunt
pear
parad
sidewalks
##zzarella
balltwo
boardthe
handled
raquet
cowsa
##ago
floorsa
wiitwo
standard
mozzarella
bagsa
marching
brusha
zootwo
workstation
toothbrusha
subst
wired
garb
concert
glovea
spoona
##ucch
peeks
peach
dragging
##coat
halloween
hooded
practices
##athers
charging
captivity
trolly
fedora
stormy
barriers
phonethe
recliner
destro
architect
sleigh
biscuit
renovated
dropping
##ettes
octopus
airstrip
shepherd
stereo
tournament
gull
gang
vans
yummy
zucch
##cle
##pit
##fting
##women
##hold
##50
##ateboard
##rocc
##ona
##eta
##isher
atv
placea
plung
personnel
downward
snowsuit
##eech
##ctors
poor
##ested
colum
courts
flowery
bib
platethe
chews
loft
polesa
patri
toya
raining
pillars
salt
huddle
curtaina
ruga
casual
drapes
##flower
stoves
delivering
dots
focused
bandana
finishing
moment
spaces
solar
handicapped
ponies
hunched
machinery
overgrown
dum
gift
mp
rush
ven
vess
##cases
##over
##verse
##gin
##fight
##war
##water
##hap
##bea
##eries
##anse
think
##resh
##omy
##ram
##roud
bug
shine
itseveral
plum
parrots
##antic
upwards
parktwo
baseman
##eeping
##inder
sidecar
##boarder
cocon
##ycles
clockt
bearsa
congre
waist
underground
speech
reins
behinda
fencing
views
broth
guide
mosa
came
probably
barber
ord
breads
salmon
hug
engaging
wildebe
tarmaca
##structed
turtle
hammer
burner
burners
terra
shelvesa
peak
peaches
grooming
grove
populated
descending
needle
reception
beanie
import
pressing
oxen
biscuits
unders
currently
instructions
crawling
laundry
refridgerator
zucchini
idle
mice
nature
##long
##tea
##nch
##wich
##erior
tot
##opes
lav
##seat
carefully
##igns
gras
pizzatwo
##aneous
cityscape
alpine
interst
grave
##asty
##estic
suita
clut
##ques
goble
##anges
vegetarian
sunlit
kno
doorsa
colorsa
##gram
household
amaz
haircut
strips
hoop
concent
##meal
bloss
machinea
terri
crab
cagea
sheetsa
warns
complex
expanse
dense
film
languages
activ
goof
compartments
##market
pencil
affixed
memorial
poured
flamingos
trekking
daisies
mcd
patiently
royal
##roccoli
mp3
mosaic
berry
husk
krispy
las
nasty
rat
sell
ugly
vir
vine
##ties
##hift
##itting
##erk
theater
##alls
buried
bubble
tableseveral
snowman
foraging
foodsa
caps
slanted
veg
banquet
showroom
stuffing
bara
barna
plantains
amtra
orangesa
flowering
marketplace
tablesome
trails
carried
vehiclea
stylish
wedge
glow
makeshift
garagea
tossed
remodel
hamburgers
shrub
weathered
filthy
awaits
athletes
fleet
consumption
vertical
slippers
cactus
calculator
concentr
mcdonal
11
aer
barge
goth
nor
ver
##son
##ites
waterseveral
##ston
pokes
elev
tails
wallthe
##iche
##agie
mirrorthe
camel
proper
##pect
herded
seta
##used
cana
ways
salon
hoagie
settings
seaa
packing
teamm
quart
spewing
##bbling
positions
peaking
median
croo
magnet
depicted
sidel
levels
trimmed
peacefully
bridle
##traffic
supermarket
rhino
pelican
broadway
croissant
crocheted
ticket
political
yacht
residence
jewel
stylized
##colorful
patriotic
important
amtrak
cables
fell
lant
proud
tusk
wil
wrong
##inary
tone
sta
##ablish
bud
shack
chee
airan
coaster
surfboardsa
diaper
##ifts
goers
added
enough
proce
highchair
housing
sleepy
clothed
england
obsc
hockey
salada
squats
beautifully
wheelie
carriagea
spec
rooft
twent
struct
grilling
cheeses
captive
sections
combing
instead
stockings
ornaments
ornamental
snuggled
ferris
rhin
retriever
blooming
markings
congrat
florets
establish
destroyed
clocktower
12
ast
aboard
gatea
kreme
rally
##ience
##unt
##inging
##icans
cho
chic
chill
law
snowing
parks
hash
foodthe
motorboat
##imal
overturned
towela
asia
skytwo
drizz
teens
anothertwo
safe
daytwo
headband
headlights
cann
halfway
cloths
bikesa
central
##scap
access
laden
exterior
intern
glider
carpeta
speaks
charger
##tail
studying
replic
cushions
extreme
horizont
drum
employees
nuzzling
landsca
gadgets
wooly
sunshine
architectural
wildebeest
husky
aust
cris
era
rink
root
##cup
##iel
##everal
##pair
##ala
tol
staff
##omas
##ckled
##isted
peps
##ebur
shells
itthree
changing
##aman
grilla
signing
coated
##lders
lightly
swift
fireman
firefight
contin
contact
backgroundthere
##dock
taller
brass
groundtwo
##arium
server
mark
attack
canv
##aker
salsa
teapot
worked
layed
settinga
centera
seeing
ceilinga
claus
skiesa
carrotsa
misc
pavementa
slopesa
##urfer
cranes
maintain
groceries
fedex
unused
instructor
stepsa
recei
wander
macbook
blueberry
woven
outsidetwo
blades
lunging
contraption
shooting
##elephants
intricate
burrito
substance
underside
interstate
activities
pepsi
hides
nook
oat
ping
pood
wrought
##lots
##occup
##mers
##ga
##atian
inn
##ene
stages
##asa
wheat
##vered
tablethree
tablethis
laket
##amel
fieldseveral
snowthe
waterpeople
buildingthere
##ptwo
ford
lips
gamethe
boatsa
browns
swiss
diffic
togetherthe
viewer
preform
animated
protru
loves
##tenance
marks
controlled
soccera
forehead
##acy
docking
bushel
pauses
styles
watchesa
quaint
flaga
highwaya
burg
groomed
eyeglasses
tosses
plank
expired
receive
took
phonetwo
##guard
flavors
tattoos
curiously
pantry
affection
assembly
##huahua
welcome
chihuahua
dalmatian
recreational
murky
structures
congratul
##occupied
difficult
18
certain
diced
rd
rum
tell
yield
##orous
##kia
##glass
##fth
##hot
##erly
thomas
##reading
stalks
##elve
buds
boiled
someonea
herds
backseat
parkeda
toilette
conne
wak
wavy
boarded
frisby
##asts
spreading
column
##ggling
able
showa
##iforn
sod
birda
unoccupied
proj
leap
races
sleeve
rowboat
greet
novel
clotha
enclosuretwo
beauty
trailers
helmeted
famous
##born
gloomy
feature
feeta
##ension
modified
leashes
strap
casting
sunseta
models
sorts
mitts
##planes
californ
sauerk
customer
maintenance
aquarium
appetizers
hammock
channel
columns
virgin
gothic
elevator
replica
california
gathers
national
pra
packet
rund
sigh
tit
tack
##ians
##nut
##dry
##ham
##opard
topthe
caramel
outdated
parkthe
bust
##stick
mote
beachpeople
##rise
##umps
throughout
cly
couchtwo
##iful
prey
leopard
standup
checked
unb
lock
knot
tracksthe
pota
rescue
##ize
triangle
salads
paying
entire
bathtuba
packs
paddock
arts
gardena
crazy
shoea
misses
watersa
streamers
mason
lifeguard
hearts
cheesebur
angel
recently
fairly
region
fryer
cakethe
blade
dunkin
employee
demonstration
skew
investigating
graphic
community
dangling
plunger
rundown
bone
dy
norm
pong
tric
usa
wid
##osa
##sung
##tel
##nas
stalla
##ouse
whip
##eblack
pip
fieldsome
##stract
rooman
##enthe
playfully
skateboardthe
backside
beam
couples
elephantsa
constructed
picturesa
boating
brownies
swir
treean
kiteboard
unkn
whose
nokia
blank
starts
steal
newborn
landscap
pretz
flatbread
rounded
butcher
##bananas
burgers
ceilings
boulders
preser
follow
coursea
spreads
observe
idly
bundt
operated
learn
minimal
kayaks
caketwo
bordered
juicer
foamy
scrambled
samsung
oceantwo
bruss
spanish
lunges
rapids
meatballs
maneuver
wrestling
seasoning
graduation
mechanical
spiral
handlebars
trotting
##ateboarder
goofy
twenty
austral
miscell
poodle
sauerkraut
unknown
50
ara
award
crying
ere
gifts
iro
rul
tr
vines
zip
##iea
##nera
##kids
##dale
##inating
##itti
inner
##etted
##olding
##uters
shark
holly
launch
boxt
bases
##aining
blown
airliners
##phon
##photo
playful
combo
succ
forrest
lizard
overalls
laptopthe
ash
sinkthe
lighter
banners
abstract
##ifying
viewa
least
zebraa
unat
fours
cabs
pitches
racqueta
surfinga
darka
exch
statuea
feedera
##different
squee
bushy
partition
##ensely
bake
veggiesa
candlesa
presenting
leafless
##plates
india
rearview
microphones
david
condiment
univers
ribbons
shouldera
pleas
thingsa
arrive
wreath
cafea
divider
##marine
merch
oversized
discussing
palace
skelet
converted
southw
scoop
luxury
blazer
technolog
newspapers
trophy
injured
terrier
north
jewelry
canvas
oatmeal
ironing
30
age
bon
bitten
ding
dre
et
fellow
lan
lic
tightly
##lift
##city
##wed
##hous
##haw
##yle
##broccoli
##lem
##atter
ton
##oring
##orange
##igious
##icles
##icular
##arded
##abil
##nthe
coupe
fixed
batch
##ami
girla
roomthere
##airs
coal
beads
greena
roadan
banks
abund
enc
program
boxed
racea
diners
airportan
runwayan
brushed
silla
panting
pancake
jacketa
layers
submarine
dude
curbside
feather
sofaa
equipmenta
foila
clothesa
##iously
rugby
soupa
legsa
stovet
laughs
tongs
##comm
coaches
alleyway
brace
pud
anticip
peaceful
folks
seasoned
nightstands
companion
pineapples
robes
streetlights
cottage
croissants
releasing
navig
flanked
gau
chatting
establishment
projection
##dryer
cheeseburger
miscellaneous
bom
gig
ipad
jun
tips
tshirt
vas
vel
zomb
##creen
##uck
peels
peoples
##ntwo
roasting
chun
charm
streetsome
laps
frow
boston
##atee
floored
waterthree
loose
seper
##gethe
beachan
beachthere
cave
conven
almon
slal
intense
windowtwo
scall
photoshop
deal
wallan
covera
spraw
livingroom
treesthree
soars
sheeps
hitched
hilltwo
hillthe
##venile
promin
##essome
curls
allowed
monk
freely
families
century
tanks
graffitia
##pos
quiche
churcha
harley
overlook
holdera
toddlers
roofa
twelve
dollar
discs
costumed
leasha
foregrounda
propellor
jean
linesa
patterns
celebratory
childs
skiisa
parachutes
knitting
demol
umbrellathe
barbeque
shears
shearing
edges
kitchentwo
automobiles
##giraffe
renovation
pilots
pelicans
revealing
navigating
frizbee
fuel
participating
invol
perspective
panoramic
effect
quarters
chicago
horizontal
swiftly
stovetop
almonds
galley
gummy
last
mick
ovent
sure
via
vib
wants
yaw
##cer
##ike
##uggage
##nuts
##for
##ho
##atively
incre
##asian
##ouris
##outs
##raction
##oola
itpeople
laven
bored
battle
rivers
outhouse
airthe
phot
bedside
sele
seal
cos
beaks
motoc
##getwo
bearing
alt
walltwo
##astwo
platethere
facial
union
sunflower
trackthe
attraction
patient
canned
amen
looked
mats
##olded
exe
##inton
computersa
##posed
centerpiece
hamster
burned
railinga
flipped
waterski
glaze
spectator
exha
buliding
indicate
saddled
volks
popular
stroll
bundles
recipe
melon
messing
attend
bison
paneling
hawai
drops
discussion
crumbs
hurdle
victorian
varying
diagonal
parlor
prair
frowning
yawning
bm
bound
pins
samp
vers
##rd
##pace
##fire
##dles
##dling
##wag
##bear
##inted
##ret
witha
##opl
##elarge
##eline
peer
lazy
fixes
##ader
##adults
grate
##stairs
kitetwo
grassthere
playinga
kitchenette
mens
ballan
mouses
alonea
brownie
scaff
banka
##apen
sox
flooran
sales
slopetwo
coral
sunrise
umbrellaspeople
controlling
##dering
planted
raincoat
matches
surrounds
numbered
photographing
exper
stately
urn
directs
concer
sailors
packaging
frid
concretea
juvenile
wedges
##tible
##bbled
shovel
lawna
visor
##plant
pinned
collie
labels
repres
bento
booths
tusked
religious
workspace
activity
sweets
repairing
roped
##horse
##nowboarder
gestures
details
wonderful
cruising
surfaces
barricade
coconut
crooked
rooftop
cannot
preforming
clydes
pudding
velvet
chunks
slalom
mickey
exhaust
bits
cyl
dated
east
jal
ner
tipped
##crow
##sure
ank
##ota
streetthis
pars
uphill
##veled
grid
##stop
##ential
seash
cob
##ieval
childa
score
handling
handmade
phonean
offers
courtthe
goatee
orangea
unp
knight
emo
##vish
suitcas
##aki
toysa
##weed
better
hairdryer
triangular
host
given
shakes
bushels
swimmers
arranging
curtainsa
pointy
locations
trunka
##scale
baker
farma
neath
weed
ponda
himselfa
medieval
masks
musc
nails
taste
##urfers
denim
sprayed
aprons
wildernes
parachut
fencethe
sneaker
##ebox
spacea
silhouetted
juicea
cockpit
mannequins
symbols
convertible
twigs
dolly
luxur
##cisco
francisco
vessel
toliet
##osaur
skeleton
license
vibrant
lavender
prairie
dental
eiff
mm
oar
occ
pric
sen
tas
vw
##ique
##rid
##pro
##pol
##miling
##male
##fresh
##hers
##itol
stro
##ometer
sitt
##elt
##ards
##vern
##assorted
doily
lace
lavish
toptwo
##ander
piera
grano
beagle
overview
##tles
always
playera
##shot
glassware
graf
treethe
handler
switch
dives
wiim
##velop
fencean
address
arches
racers
dinosaur
forehand
purses
halfp
armchair
hugs
commuters
wildflowers
belowa
wraps
quar
profile
##bank
rooster
capitol
casually
misty
tenta
adorn
stov
celebrate
filming
##undy
guards
related
await
needles
minutes
repairs
movies
parasols
defensive
spanning
socializing
nibbling
##works
duffel
searching
dangerous
windmill
burgundy
normal
tricycle
davidson
volkswag
sampling
eiffel
granola
dar
es
gay
linger
mal
punch
ray
rared
sip
testing
tells
val
yak
##eing
##of
##nie
##kiers
##gi
##fri
##dor
##dou
##ints
##anna
anten
##rob
tones
##orium
##oranges
mang
manual
mantel
whom
buoy
choo
streetseveral
parmes
upscale
ripped
caran
##ulture
basement
beams
motea
overa
##ached
waking
handstand
desktwo
reco
bows
diet
buna
umbrellaan
eachother
togetherthree
##ifier
racketthe
hilltop
stationed
stationthe
dressera
hatch
##ustr
marin
containera
halfa
starring
performance
penny
credit
trailera
geara
placemat
haya
potatoesa
harbora
headset
grows
surroundings
petals
audit
mattresses
combined
friendly
receiving
detour
majestic
messages
ostriches
facade
impress
donkeys
browsing
autograph
##couple
gnar
viol
blossom
mcdonald
sidelines
loveseat
arabic
university
dingy
gigantic
sprawled
amenities
hawaiian
bmw
concerned
luxurious
parmesan
auditorium
3d
ber
cds
er
gum
jac
lla
mile
munching
rom
wades
##tables
##kward
##vor
##held
##balla
##ita
onward
##len
tots
toll
##esome
isn
manic
##open
##tingu
whine
pecking
ith
womans
##assort
cha
doc
paris
##andwich
##veget
##emale
concept
converse
compon
disg
sli
slat
tap
raz
spi
maple
##agna
##lesc
daythe
##eye
stationtwo
dressa
sunbath
arid
##tended
childrena
bark
homeless
orig
disha
planters
pursea
breaded
tripod
wiresa
benchesa
sailor
flys
swimsuit
dishesa
speckled
restrooma
clause
discarded
neta
##nela
medal
branchesa
charter
petted
awkward
transported
cowboys
##uzzi
illustr
ordering
pops
embed
protect
insid
linked
shutters
festive
clustered
tater
notepad
badm
alcoholic
youths
member
outsidethe
legos
kitchenthe
woolly
oceanthe
temple
marshmall
hours
frizbe
aiming
icebox
announ
exerc
amazing
lasagna
cheek
ruler
hollywood
demolished
clydesdale
jacuzzi
##assortment
bris
cash
crop
ditch
effic
easter
hus
ivy
lass
nude
option
pound
prist
puffy
ricea
sings
wea
##living
##ud
##fer
##ys
##lev
theat
##reet
##raffic
necess
areathe
##ict
##aby
skill
shred
fift
topan
##antly
ups
outlet
airtwo
grassthree
##zzle
hero
skateboardsa
otherthe
##ief
overfl
eatery
ballsa
compo
alter
benchthe
intensely
windowan
scot
mirrorsa
cheer
fruitsa
guides
feel
stationan
sloped
adding
lost
looms
potty
breaks
patches
platesome
restaurants
tilesa
rockstwo
booze
expla
teacher
workshop
platforms
stairwell
winery
##enders
artist
steaming
deserta
cardinal
naps
stradd
sidesa
holea
visiting
lids
papersa
itselfa
stocking
fasta
angels
celebrates
observes
dumpster
gazebo
strolling
obstacles
melting
peanuts
lobster
arrives
limbs
bloody
billboards
pigs
distanc
inspects
satell
sheared
pooh
domed
occupied
perfectly
chalkboard
paradea
proceed
landscaping
protruding
landscapea
unattended
technology
##housea
scaffolding
parsley
##double
embedded
exercise
did
dread
edible
france
hoo
jes
kh
kil
keeping
mam
pina
puzz
sed
song
sipping
##emb
##ucc
##nting
##gran
##gons
##gien
##yon
##ero
##ank
tons
##organ
##ism
##opened
##rack
##ersh
##olate
##igan
bum
shield
holing
dod
##herd
##herea
launching
beet
beets
flour
ribs
carthe
surg
##rows
reda
baseballthe
skaters
secl
##that
liber
##ght
motorists
desolate
wagons
##aseveral
spilled
spending
fired
fireworks
floortwo
treesthere
biket
soil
study
babya
dayan
moved
unpack
unident
##ipher
acrob
grazinga
trackstwo
peripher
ages
allow
hound
poll
##cedes
battery
mature
photography
##onda
uniforma
picket
cleaner
vehiclesa
seaweed
##mingly
frisbeethe
seemingly
creamy
shadea
eyesa
weight
interview
fighters
housesa
boulder
sodaa
indoorsa
focal
copper
joy
billowing
warmly
tinfo
sidetwo
cuis
##passeng
describ
util
infield
install
notebooks
maybe
collect
crashed
crashes
automatic
tissues
departing
exposure
fitted
mailbox
cocktail
tilting
##zebra
assembled
memorabil
201
source
years
signthe
missed
aqua
resemble
placid
sunda
plums
lantern
proudly
receipt
pipea
brussel
etc
abundance
waterskiing
badminton
ado
cider
cycling
date
ener
fet
foo
kio
merry
moose
test
##aves
##oke
##uded
##mea
##train
##gely
##fish
##female
##big
##zer
onthe
##ata
infront
##ros
##asy
##asion
##older
standinga
chase
chases
streetcar
bee
topsa
topless
flats
cartwo
dogthe
based
blvd
##ented
build
sequ
bathroomthe
herb
heron
pockets
overh
beachthree
beachsome
dispos
boardtwo
slats
sinksa
grains
trench
handheld
spl
spear
reigns
countries
dips
##eaten
offering
flowera
drift
teh
hygien
days
favor
feild
slopethe
uneaten
acting
empt
leaking
higha
mono
jetliners
appo
lincol
sticka
sticky
shopped
common
flames
creature
helmeta
picturesque
othersa
takeout
leftover
globe
curtained
fisheye
backpacka
fansa
creama
juggling
turb
couchesa
cracker
extern
strung
porta
ornately
shipping
sheeta
pawing
structurea
piercing
streaming
##modern
##flies
terminala
raisins
guitars
##comp
angles
crock
tuna
sprays
collared
bandanna
gazes
elbow
ordered
hungry
dispensers
gripping
wrappers
fatig
africa
seaside
windsurfer
keeps
saucers
antelopes
cuddled
cotton
nuzzle
reveals
apparat
investig
blenders
chipsa
##player
zoom
poorly
rushing
congregate
concentrating
aeropl
maintained
southwest
bomber
photoshopped
altitude
version
senior
razor
husband
pristine
##levard
jesus
secluded
liberty
tinfoil
favorite
lincoln
external
25
cities
dut
kore
ming
mari
pome
pam
tang
tiling
want
wade
wife
##luggage
##crop
##ola
##ux
##dies
##bla
##ances
inse
ans
stark
##onge
##onuts
##lady
bubbles
plumb
plans
chim
doctor
fronts
tennistwo
##kee
blackberry
kitethe
##ssomeone
##thora
beachseveral
elephantan
cale
roadthere
flyinga
boardstwo
handrail
swamp
colt
lottwo
skylight
##ubby
##iesa
groundan
restored
unopened
loom
ridge
decora
walker
marine
talkinga
dinnera
riverbank
balding
rains
batteries
##weight
sheering
scenes
extingu
##liced
attachment
countrya
creating
distorted
piecesa
lampsa
trucksa
boxesa
rounds
pepperon
crafting
advertises
minivan
spotless
boulevard
milka
waiter
##boys
completing
microphonea
hearty
cupboardsa
organic
organiz
tunnela
prints
surfacetwo
suspenders
parake
serviced
onlooker
cigarettes
turkeys
plethora
cameratwo
strand
bridges
attendant
possible
eagerly
flavor
elaborately
rollerbla
heating
tattooed
emerging
grasslands
slender
sample
admire
therm
avocados
temporary
##skiers
drums
demonstrating
wavethe
detailed
lipstick
orchard
broccolith
duffle
gorilla
gulls
##happy
teammates
rumpled
sodas
prominent
jalapen
seashore
##prof
halfpipe
overflowing
##organized
memorabilia
hygiene
pomegran
broom
dv
dummy
ev
fou
gru
gree
jail
ken
lets
loll
mint
nun
nets
nunch
py
pumps
sin
uk
wars
##ci
##ov
##uary
##kier
##kites
##kateboarder
##dish
##wash
##hn
##ben
##robe
##laptop
##rador
##icing
shee
shoot
pliers
laz
flu
flop
outcrop
platean
buildingsthe
sup
pizzathe
motif
skia
lookinga
frisbea
tagging
spice
spool
spider
sponge
cakean
surfboardthe
cellphon
runa
backgroundseveral
lecture
luck
wiith
hillsa
groundthe
guarding
guided
ago
tvs
tvthe
attic
##ishing
panels
created
creme
edgea
pavil
drawings
lapel
##isters
cookinga
eggplant
schem
earphones
jud
businessmen
hotdoga
signaling
accord
chops
circles
glide
antiques
##uffs
##covered
media
shares
flighta
america
loga
butterflies
ketchupa
##mobile
##athis
stadiuma
ducklings
capture
angled
arrangements
labrador
nail
##wooden
jogging
procession
avoid
microwav
blindf
rectangle
##cattle
protesting
provides
environmenta
protesters
squarea
penguins
citiz
contempl
gazelles
dolph
pacific
luggaget
mossy
clutching
goblets
remodeling
rhinos
international
firefighters
attacking
wakeboard
success
exchanging
pleasant
dreary
##hawk
incredible
exec
mangoes
##vegetables
theatre
satellite
cuisine
kiosk
chimney
aj
ale
coo
crush
der
dell
daff
fal
fond
hate
netting
sking
va
ves
vig
##iing
##ued
##pen
##meat
##nal
##vintage
##game
##dar
##books
##asc
##onna
##ckoo
##iler
##ilding
budd
pews
trade
##uristic
shaker
chu
chute
chunk
chubby
streetsa
lag
boar
##ams
upthe
snake
caring
outer
snows
##igned
signpost
##stool
##stuffed
bedan
playa
##mber
bathroomtwo
##ctic
backward
moto
likes
eleven
toiletthe
cape
##irts
tale
underwater
swit
diff
dries
##door
passanger
floorthe
differently
cheering
broke
brings
additional
dressers
uncom
crowding
loving
traveler
march
airportthe
railsa
##closure
arma
multitude
strikes
shoppers
hog
assisting
underneatha
slicesa
##point
centered
directionsa
designated
loads
blendera
horsestwo
modest
tiesa
dramat
railings
bought
leafs
lega
adorns
##bike
checkerboard
guitara
coacha
confused
primit
interact
jerseys
sidethe
cuckoo
monkeys
faucets
quilted
doubled
arenaa
kayaking
knifes
nurse
solitary
vacation
privacy
troop
mercedes
domin
description
hedges
utensilsa
apparently
fixings
flushing
purchase
ordinary
lava
goblet
connecting
prices
antenna
violin
manicured
marshmallows
flatscreen
fatigues
apparatus
pamph
dvds
pyram
lazily
daffod
primitive
active
bol
bout
binder
dying
dyed
eth
esp
evil
filing
fills
fisher
gla
gest
hump
hope
mul
mich
nick
pm
pest
pentwo
ruff
sony
tear
tins
vulture
zones
##casea
##hat
##00
##inside
##inter
##itter
##roid
toasting
stab
##ont
isle
mango
neg
why
whale
##geous
##about
bugg
bucking
peop
itlarge
plug
plaster
tablepeople
frol
fifth
##seven
upcoming
rich
snowmobile
basins
signed
reddish
##airplanes
##pthere
bathrooms
bathrooman
sugg
foodst
coins
##ctuary
otherthree
##imals
citythe
gameb
slight
intent
windowthere
sinkan
areaan
yellowa
treethere
handthe
deskthe
##cco
colon
county
offsp
showc
saw
stuffa
sloping
corre
longboard
wineglass
remove
perhap
mart
barred
birdsa
bookcases
canyon
##isha
rocket
battera
hairbrush
statute
teach
hoses
cooker
pause
##boxes
gears
winning
wrink
article
##scent
judge
##lined
devicea
reflections
smokea
turf
boardinga
controllersa
twisted
interested
washes
straps
speedboat
peek
watersome
peppersa
cubes
formations
handlea
rubble
countersa
stringa
explo
magnifying
calmly
filth
filmed
lemonade
finishes
thicket
emblem
embank
melons
needed
uncut
clusters
projected
deter
phonestwo
coastal
tights
reclines
eighteen
nurses
casts
pressed
ropea
easel
guns
cuddles
sanctuary
damage
gymnas
futuristic
appetizing
vertically
victory
pacifier
##motorcycles
enthusiastic
##beaut
congreg
knobs
obscured
crisp
motocross
parachutea
occasion
quarter
sliver
options
appointed
##computer
aeroplane
korean
pepperonis
thermometer
##professional
pavilion
gesturing
perhaps
gymnasium
00
55
aid
aside
civ
gap
gutter
gho
hey
hips
honda
lou
ore
oll
oars
pom
sons
went
wrench
##cove
##oles
##uf
##usa
##pard
##san
##table
##fle
##wr
##xim
##bas
##eria
##enc
##omet
##isk
##ida
areathere
atl
peopletwo
##verted
plus
plowing
##loaded
lakes
##cement
##aming
##amole
updated
upstairs
snoo
snowst
tend
##eela
##ste
##urely
blouse
baseballs
forty
herea
pizzeria
motes
lim
clocksa
capp
umbrellass
motorcyle
boardthere
alcove
benchan
motorcycletwo
##illas
##she
##show
chairthe
scout
lightthe
handtwo
##pedestri
rafts
spilling
##estion
swam
##rtwo
firemen
surfboarder
lotion
react
reacts
cutout
contr
sock
passage
sidewalkthe
mountaintwo
imple
bringing
adds
uncovered
envel
corrid
loaves
fourth
remaining
perching
highly
curl
paints
patty
##acamole
polished
canes
reser
mouththe
pansa
armsa
statu
chocolates
##splash
assist
squad
create
##rical
vana
jumper
padded
fisha
footp
artis
awaya
desserta
##bright
clapping
bales
decorationsa
carrota
glue
peaks
lifta
captures
cyclea
##tails
rubs
competitiona
habitata
bulb
confined
princess
##urfing
entertaining
flooringa
hallwaya
stagea
filtered
cliffs
balconya
powd
straightening
##girls
protecting
camerathe
cameraman
bluea
hauls
mayo
mayonna
russ
whites
records
nowhere
unload
unloaded
decals
target
inspect
harnessed
competitor
thought
retrieving
kiwis
overst
flashing
pallet
flamingo
signtwo
latest
resembles
appetizer
untidy
sprinklesa
luggages
exercis
venue
wilted
drizzled
zombie
convenience
wildernessa
wiimote
darth
lingerie
components
lasso
calend
extinguisher
floppy
scheme
lagoon
daffodils
pesto
colonial
offspring
embankment
ghost
mayonnaise
13
350
bass
bale
cul
cgi
dj
fasc
iv
iw
mut
oats
pace
vader
wan
##aign
##eer
##uing
##uum
##pend
##mark
##mpled
##nette
##gr
##home
##heep
##hole
##ya
##yer
##ba
##baby
##zed
##eros
thirt
once
##lect
ink
##rees
ana
##ena
##encea
##altered
##chment
manner
##elled
peoplepeople
itmany
##nthere
role
ply
doctors
streetthree
lazing
parchment
smir
smashed
##riate
girra
##ands
flick
flops
fieldfour
fieldbaseball
snowan
snowsh
snowthere
closer
trainthe
surve
airshow
phill
youngster
bathed
buildingstwo
seg
foodthree
coord
kitchenan
backan
lick
##imate
elephanttwo
roadthree
mous
mounting
disemb
disorganized
alb
alas
alien
trump
##ship
scrol
underpass
wallthere
coverings
sweeping
surfboardstwo
div
suited
clips
cuta
bowlsa
togetheran
backgroundthree
dripping
mirroran
hotela
god
wih
sidewalktwo
##resso
##ously
chew
hita
brother
daytim
gush
guacamole
moder
mohawk
adv
unpa
cordless
arc
marb
barking
breed
allig
montage
rowboats
tubes
armed
##rona
exact
forklift
flame
steers
newer
pizzasa
engineer
pedal
winnie
onionsa
directiona
roundabout
fox
servings
turban
lowers
##going
chopper
dollhouse
glaring
carpeting
stork
reflect
supply
apartmenta
islanda
lida
streama
cube
pinstri
crouch
##bowl
crops
dawn
tuck
bulding
steeples
scarves
audio
canopies
priest
drivewaya
protection
protected
brake
squatted
hipsters
wreck
umbrellastwo
textured
decent
rendering
heated
campus
measure
lowered
portions
gallery
brunette
embrace
pouch
1950
spires
destinations
maneuvers
nike
sightse
##ville
officials
scooping
ripened
generated
##motorcycle
gorgeous
##warea
lavatory
vegtables
verdant
teammate
magnetic
congratulations
novelty
dye
width
australia
selecting
##police
grafitti
disgusting
khaki
describing
tangled
espresso
civil
snowstorm
iwth
unpaved
due
ewe
fru
gon
hon
hig
mim
mist
our
slo
sack
sick
session
tart
virt
ward
##cow
##card
##ecker
##rings
##mal
##mother
##mond
##fted
##wer
##half
##bre
##bunches
##batter
##ju
##ito
ontwo
##ror
##alou
toe
##owl
##etrack
##chain
##oph
##iders
##olor
travers
shr
shift
chess
chicks
choose
ladd
begging
boom
boiling
parag
batthe
batman
giraf
uphol
dogtwo
doggy
##vehic
walnuts
grated
grins
##stones
##reeze
sidean
batha
suck
sucking
backsplash
##ims
picturetwo
picturethe
citytwo
disney
laptopan
zebr
grace
scary
handful
handlers
handwr
computerthe
develop
spo
truckthe
surfboardtwo
##ggle
itsmall
skythere
content
##ifi
bunched
birdhouse
leis
hydro
hydrantthe
teddybear
tracksan
bring
daythere
grounds
feast
add
advent
advan
unw
unin
unhappy
crossroad
losing
##corn
pastel
herder
cameraan
ridea
decorates
kitespeople
##formed
buildingsome
contained
appre
##acing
##aced
rivertwo
##clock
sleeves
##issors
purpo
intersecting
silo
screened
panini
tubs
wayan
##alent
teacup
##spired
penn
earrings
polaroid
artic
artich
suitcasesa
lettu
cakesa
friendsa
plaina
sweaters
wares
drab
draft
drags
speak
spota
calz
fastened
humorous
ingredient
conesa
nailed
joint
brim
resorta
quietly
health
google
elegantly
wrecked
badge
##kyo
texas
keeper
rotting
yoga
cakethree
summit
excitedly
sanit
ferns
kitchenthere
dune
samples
therea
bricksa
squirting
crammed
apparel
blended
omelette
yachts
conditioner
panorama
cantalou
orders
grasping
rhinoc
internet
titled
pretzel
pretzels
gauges
cosmet
ankle
illustration
eastern
straddling
energy
plumbing
rollerblading
greek
contemplating
vigorous
ethnic
frolicking
##beautiful
implements
corridor
overstuffed
paragl
35
agg
breeze
dach
dwar
fits
iris
jour
kim
kale
len
lilies
nasa
od
pand
pages
punk
ric
rare
siding
sib
tattered
worm
ya
##cooked
##rily
##pink
##tan
##tons
##net
##night
##gest
##donuts
##hib
##yd
##4th
##ittle
##erns
##any
##ansa
inser
ange
toes
touring
tokyo
##cha
##ises
manip
manuf
never
nect
wheela
##utton
skying
peoplethe
shin
sher
shak
##asse
##iles
chow
charge
chap
ladle
smear
##andise
picker
rifle
fieldpeople
tennisthe
##sty
##store
bytwo
watery
waterfour
##inks
sees
cobbled
skim
overweight
beachs
beachman
##empty
gamethree
alot
alike
aligned
slim
laptopstwo
sands
sinktwo
glassed
scan
dew
swor
requ
floss
lotthe
dial
##ationa
cellar
clas
clipping
itsomeone
courtthere
skythree
##apers
##upper
bikin
runners
backgroundsome
soaking
plateb
mirrortwo
prep
govern
racketstwo
##othere
countertwo
wipes
mirrorthere
anime
##ressed
##parking
snowboardsa
rested
stations
unke
cupsa
camo
themthere
##pected
##ulted
telephones
racetrack
##outside
perpend
highlight
patties
jetway
mule
muzzle
brushy
##mpy
greasy
battered
hazard
sheer
sheered
shepard
busesa
hula
engra
monitorsa
performer
penned
creative
particular
tiethe
wildtwo
vasesa
duct
teama
electronicsa
paintinga
trunkan
ques
quant
##scri
bushesan
tomatoesa
devil
smokes
subwaya
harry
harnes
flagsa
cookeda
framea
lunchbox
interest
landinga
closeda
overheada
glare
capital
pastriesa
teenaged
clothinga
wintera
apartments
##nished
further
mounds
shared
simul
missinga
captain
museuma
separating
##umerous
expensive
observed
coversa
##carrots
sugary
cranberry
glovesa
chests
sugared
cliffa
neighborhooda
marinaa
dusted
tinted
timer
casesa
##emany
embroid
grips
orioles
fairy
geomet
hikers
hiker
fencethere
grinning
trimming
actively
examine
anything
kisses
bridal
badly
tableclotha
overpassa
conveyer
stables
decal
solo
artistically
specialty
lowering
competitors
files
scrap
torso
longh
pretends
##matched
lions
##blurry
dropped
hunting
maneuvering
release
finely
fudge
newspapera
dumping
accessible
firefighter
laketwo
##fthansa
trink
zipper
merchandise
attendants
volkswagon
llama
slatted
frizbeea
shredding
##uccino
disposable
mario
jalapenos
lollip
lucky
accordion
fondant
pyramid
showcasing
cappuccino
russian
flickr
sightseeing
higher
appreci
cantaloupe
dwarf
kimon
nectar
bikinis
perpendicular
6th
ari
amp
dus
damp
ecle
ful
font
gel
gross
gps
hide
ii
ir
jacks
ko
mate
ny
pris
tupper
unis
vio
viet
##cers
##cap
##rig
##oire
##vine
##fa
##inting
##ares
inverted
##ald
stood
stam
stoola
##ison
##eling
##utting
##abo
ate
atm
tractors
shit
##ffiti
plowed
##loaf
bodies
##seen
floo
snout
tends
fronted
blacka
##sten
bythe
waterman
##enthere
##ssmall
##boards
bathroomthis
foodan
skiies
roadseveral
mena
ballthere
motorcyl
boardan
laptoptwo
##shund
sinkthere
boattwo
boatthe
scape
lightsthe
deskan
undergoing
vein
spons
sparrow
trucktwo
sweep
colander
dies
differ
clump
##apples
showcase
couchthe
soon
pred
lufthansa
passport
anotherthree
chev
flowerstwo
broch
hillan
adjo
tiean
prohib
themthe
los
loop
keychain
coloring
##tender
childrens
curving
potsa
breath
videogame
allowing
monor
forefront
bookstore
rowa
tilea
runninga
housean
handsome
armor
blanketsa
engage
performed
urns
towelsa
belie
wildly
hotels
dryera
sealed
wheeling
packa
foota
wedged
harb
roosters
hardware
##fection
claws
decka
strainer
walkwaya
stories
doorwaya
wintery
stunta
milksh
buttered
crosswalka
sectioned
humans
##bedroom
daily
usb
expert
furnishing
laughinga
joke
confetti
indicator
lightinga
ceremon
balcon
mainly
bills
filter
cushioned
orderly
popcorn
movement
braces
##amaha
please
witting
hike
shelve
coastline
attended
impro
vacuum
dividers
tuxedos
firetrucks
##araunt
dunes
belonging
marshy
raspberry
bounces
nutr
reveal
olympics
wavetwo
occupy
bulldo
gotten
politic
shoots
orchids
inviting
windmills
accented
terrace
graveyard
knob
blossoms
##pectators
lanterns
species
continental
connection
skewers
erected
##commuter
junction
seperate
represent
muscular
marinara
bristles
explaining
puzzle
unpacked
acrobatic
sequence
overhang
insect
nunchuck
##bench
ajar
crushed
doubledecker
determ
swampy
contrast
artisan
alaska
marbled
alligator
girafee
rhinoceros
aggress
dachshund
pandas
angeles
government
geometric
jackson
40
74
bina
brought
cay
crick
egre
feta
gat
gild
hop
heeled
kang
mild
mast
slack
sorting
valent
wis
wti
wolf
yo
yan
yamaha
##lon
##cif
##cans
##eon
##pened
##priate
##mpt
##tow
##kirts
##vestwo
##dough
##writ
##0s
##bot
##zes
##inity
##inated
##ancea
tho
thinking
thai
often
##aroo
inclosure
inspired
##ality
stil
##orry
##laged
##otwo
areathree
##eboarding
shutter
shorter
shorn
itman
##locks
chipped
streetcars
frothy
topthere
##ateur
nears
walnut
closing
trained
bustwo
busthe
roompeople
##inders
bystand
watermany
loos
buildingthree
comical
sever
skateboardtwo
bead
boya
beachmany
roadsidea
cityan
gamestwo
gamethere
slot
windowsthe
aroundtwo
scant
scare
treet
handstwo
rag
spla
spare
spins
truckan
firea
fireh
bann
phoneman
umbrellapeople
treesseveral
climate
courttennis
togetherthere
birdc
stucco
counterthe
refresh
##othe
womena
sidewalkan
flowersthe
hitch
grounded
mos
##parka
hanged
restaraunt
sloppy
bananasthe
units
enfor
promot
##igerator
emitting
wineglasses
bicycling
remain
polean
tracktwo
keyboardthe
perio
walkers
curry
tvtwo
sett
buildingsan
nightthe
paperback
meatloaf
rampthe
respected
seatsa
tubthe
amateur
hairless
##toilet
basketballa
armoire
expl
##lices
trium
teaches
mousepad
cookware
flapping
shota
cresting
paths
paid
draws
turnips
wirea
enters
entran
garment
garland
seaplane
enda
readinga
towns
##itious
flyers
gloved
righta
question
giants
butting
takena
umpirea
territ
appropriate
##houses
luncha
luncheon
roofed
twir
typewrit
leashed
relaxed
pawsa
candlea
corners
##coal
growth
selfiea
paddlea
##allets
streams
##flip
stoop
##stered
charcoal
freeze
tanka
housethe
florida
bucketa
cupboarda
copy
planks
skirts
naval
expans
exhibition
confusing
volunt
ownera
exhibita
systema
accessoriesa
ringa
recess
fabrics
musician
geisha
fencethree
skinned
register
##eboat
umbrellathere
silhouettes
minor
ruins
rugged
outskirts
##ification
halter
halved
nurs
solid
selections
campaign
easily
tortillas
unripened
fitting
juicy
clowns
attentively
outfielder
flea
retrieve
defaced
visitor
belongs
pretend
temper
bruised
##iency
storefronts
abov
parasailers
tangerine
entryway
rodent
seasonings
aims
aimed
##cream
resembling
carvings
conditions
snapshot
tacos
vessels
totally
concentrates
mcdonalds
choices
packets
unbutton
navigates
dealersh
##friends
chaise
spiky
efficiency
skillfully
scott
dodgers
surgical
##passengers
sundae
switching
dramatic
buggies
enthusiastically
squadron
calendar
wanting
virtual
upholstered
manufact
quesad
prison
tupperware
diesel
monorail
gilded
kangaroo
wtih
period
15
24
3rd
ads
bold
crispy
dandel
jul
mash
malla
oo
ok
rue
sister
tand
user
vit
wro
yelling
yaks
ze
##aired
##iate
##overs
##uette
##pse
##ply
##pots
##pitch
##mil
##six
##no
##kina
##gar
##wat
##wined
##jet
onan
##edic
toiled
ster
stony
isol
##che
##lam
##ili
whir
buid
traff
shamp
shocked
##ffy
chang
chased
##hernal
laces
bees
frown
thatched
parap
##ads
##ripe
piers
rims
snowthree
snowseveral
trainers
trainsa
trainpeople
##ulous
parkpeople
surboard
signan
##ainted
##stic
##phan
bedthere
bathroomthere
foodthere
coco
mothers
woodstwo
skii
overly
cauc
causing
menus
moust
dism
intrig
##ongous
##uments
sinkthis
chairan
chairlift
treest
liter
spout
spelled
banister
phonewoman
lotan
lotthere
outsidean
dipped
bunting
cowgirl
togethers
telesc
plater
skistwo
sheepdog
oceans
##dola
rackettwo
dirtbike
mountaintop
broo
hillthree
imac
daypeople
daythree
headthe
##part
feasting
crows
theman
themthree
longer
doorthe
kidsa
hangings
colora
##enger
clement
cleans
bicyclesa
bartender
videos
allows
bodysuit
##usion
himthe
restaurantthe
##dered
muda
toyota
respective
##graffiti
nosea
darkness
mata
##izable
postcard
##toons
hunt
attaching
attacheda
oblong
hosea
shading
drinkinga
plastica
squid
partner
##ddles
pail
pausing
entrees
otherseveral
leftovers
wheelsa
padding
swimmer
winetwo
blending
write
fana
surfacean
objecta
quality
jugs
tours
fashionable
harvest
farmland
turbu
straws
urinala
gamesome
gardening
horsetwo
napkina
crucif
glows
mismatched
scootera
waterside
selfa
comfy
containersa
muga
painta
simply
gently
toolsa
motiona
humongous
focusing
returned
auth
headphonesa
join
joined
john
alleya
custard
dena
saddles
depict
suspension
onlookersa
prior
prize
bakerya
ponytail
protector
toothpicks
backyarda
descends
amounts
pianoa
illuminate
camerathere
strangely
playeda
vegetationa
detail
actual
dancers
stemmed
exciting
willi
anyone
collecting
wanders
folder
recorder
splashes
opponents
snuggles
presses
anchor
satch
##buses
technic
stumpa
scruffy
attentive
future
pontoon
seriously
camouflaged
parasailer
skulls
fixturesa
dolla
evergreens
lesson
madea
congested
##players
barricades
sparkling
gnome
##busy
coconuts
proceeds
landscaped
affectionate
wakeboarding
preserve
australian
erect
condimentsa
##commercial
anticipation
anticipating
navigate
scallops
involved
##ourists
bulidinga
unpeeled
knights
muscles
autographs
tapest
necessities
sedan
bikethe
peripherals
interviewed
mingle
##keeper
dolphin
derby
peopel
congregating
##pedestrians
snowshoes
daytimea
gondola
handwritten
##ifiable
vigorously
smeared
embroidered
duska
eclectic
ceremonial
slacks
thorough
enforcement
territory
typewriter
nursery
temperature
dealership
paraphernal
turbulent
66
aa
alo
aru
bord
cad
cents
dusting
ess
escape
egy
gen
hen
hil
huts
hoping
mowed
pes
pure
pum
puff
ry
rin
rusting
trou
tig
wth
##lot
##cam
##ura
##tch
##teddy
##kid
##fam
##face
##dul
##wall
##wild
##wherea
##hop
##hound
##inate
##itating
##lephant
##atures
thee
inscri
##repair
withe
##rolet
##chick
##isley
##rapped
##ello
##olly
areaseveral
##urple
rods
##ndra
##ffle
streetman
streetblack
smell
##antage
piea
fliers
##elderly
dogthere
doggie
fieldthis
trainan
parkthree
##ays
airthere
redhead
byan
waterthis
youngsters
buildingseveral
sumo
forth
corona
greenish
poop
##affe
giraffee
otherfour
##iment
overloaded
bearthe
confection
disrepair
ally
benchthere
slush
motorcyclethe
compute
windowed
areapeople
chairtwo
scri
science
treed
handra
computertwo
deskthere
underbrush
defl
veil
fires
bangs
colla
colgate
reader
bowtie
diapers
clipped
offered
courtan
skyseveral
contras
##uplic
maid
##eadult
sandwichthe
lumber
dirttwo
planean
saila
towerthe
hillsidea
headlight
headdress
##parent
faux
unic
unseen
campers
proces
props
proxim
hatsa
corned
accept
sunken
locker
trackst
serene
baguette
mare
potential
monks
means
riverthe
drinkstwo
playersa
runwaythe
##akea
storetwo
purs
mates
zoothe
armrest
greyhound
performers
assoc
squinting
pendul
subject
belta
paul
paisley
afgh
tiara
turna
carriaget
##body
neckties
eggsa
wheelb
cabinetsthe
bleed
writes
artif
articles
sandwichesa
butts
delight
messed
messily
professionals
cementa
designa
mothera
horsethe
crabs
extension
propping
crumpled
coata
twisting
struggling
costumea
transparent
bottoma
skatinga
goodies
peeping
peaco
outfitted
supporting
blocka
puppet
mustarda
waitress
suppliesa
angrily
wagona
patchwork
cupcakesa
tux
tundra
winged
bulbs
##groups
shadowy
downtwo
downthe
stirred
avo
audiencea
elf
cigarett
popping
strolls
shouldersa
producing
instructing
descend
frienda
thanks
links
thinga
uncle
##eboy
speakersa
arrived
cobblestones
##gula
daughters
automated
##bags
unfur
born
deciding
cleaneda
hangara
barbec
campground
calls
calling
satin
chandeliers
##gnizable
holidays
rolla
scramb
empire
thermo
blooms
domestic
sprout
flashlight
nuzzles
signthere
orchid
ripen
supports
communic
delivered
intricately
daylighta
heights
enthusiasts
parli
property
staying
chilli
wildebeests
innoc
widow
boxtwo
squeezed
merchant
tasks
##friend
impressive
document
awkwardly
unidentifiable
adolesc
footed
outcropping
citizens
falcon
vaulted
motorola
trooper
ruffled
vultures
suggest
ollie
powdery
ivory
album
gushing
##break
ladders
##vehicles
leisurely
hydrogen
adventure
articulated
lettucea
shinning
shakers
unkempt
kimono
unison
chevrolet
nutritious
747
cricket
egret
stilts
tandem
vitam
wrote
##pitcher
buidling
shampoo
changed
caucasian
satchel
paraphernalia
aloft
egypt
contrasting
proximity
pendulum
peacocks
cult
dear
die
dren
fid
fant
gee
gna
hes
ker
kill
kraut
kabo
ml
munch
munches
nud
os
pate
pyl
pallets
sash
saint
tumb
tint
viny
veter
wee
wran
wint
##au
##ah
##cr
##cla
##cel
##cross
##cially
##even
##rints
##uous
##ulent
##past
##pool
##persa
##numerous
##vo
##wire
##hl
##hea
##bell
##eran
thigh
inches
##ences
tote
stit
stur
stun
stamp
##onally
##irs
##chie
##chocol
##oup
mani
##ellent
##ilver
##ilant
whims
##roup
##icious
##abby
atri
atmo
buck
traveled
##abled
shattered
##vera
itfour
plot
streak
dove
coup
become
frolic
bob
topper
##ception
someon
##antique
##river
catering
uptwo
upset
fling
carp
fieldman
fieldmany
snowf
traintwo
frontthe
##kees
gril
grating
blacktop
roomthree
roomthis
grasssome
bedsa
buildingpeople
buildingsthere
comic
combs
##thern
forming
foodman
backing
backthe
pod
##affes
otherthere
##gethere
overhand
clockan
toiletsa
roadpeople
conv
ballman
citythere
gameseveral
umber
boardman
alf
alto
almond
tows
sling
slider
intert
##illi
##illy
gamean
yellowish
scub
trest
deco
death
##orts
rafting
swi
repla
##ccer
umbrellawoman
treesthis
click
offer
bowltwo
bowlthe
appe
couchan
platethis
shirted
##ager
anotherthe
sidewalkthere
cheeta
saute
groundthree
resturant
stationpeople
cork
corpor
crossb
locks
knoll
telephonea
remark
ovenan
bagthe
walkie
cornerthe
dinette
catchera
airporttwo
cabina
nighttwo
jetty
sombr
meaty
riverthere
polish
canisters
ramen
waitinga
rowers
runwaytwo
slicer
storesa
raintwo
mouthwash
seattle
ample
mating
sleepinga
silverwarea
##teen
photographa
photographers
##izer
##pper
saluting
salami
hued
hugged
obel
obese
crossinga
cleared
hover
shaw
creation
crepe
distin
afro
shoretwo
chickena
peddling
graffitti
lefta
graffitied
pada
pasturetwo
spoonful
matchtwo
artfully
fanc
quote
foyer
##tiea
smoggy
dessertsa
hamper
funa
crafted
kickstand
extend
crude
roofs
weigh
springs
shipa
doorways
drag
vesta
##plu
metersa
patioa
cubby
##grey
plattera
consist
taxider
ducky
awesome
fingera
delicate
removes
balloonsa
transports
##sthese
observation
fountains
##wheel
trolleys
stirs
chesta
systems
librarya
gaze
mansion
warmer
momma
unusually
##unda
readying
cuddle
guardrail
toothpick
eveninga
operates
circlea
grip
fabrica
blinders
cellphonesa
actually
danish
##clothes
listens
monumenta
rafters
stride
factorya
windsurfers
depota
beansa
identification
providing
robotic
anchov
##building
scratch
scratches
demonic
plugs
parasails
pantsa
panties
surprise
vicinity
ultra
##skateboarder
tugboat
flashes
wallpapered
socialize
197
businessa
crumbling
rapidly
##pieces
graduates
labelled
icons
floret
contrails
cruises
finds
search
sparkler
zooms
grasps
properly
specific
boxthe
ashore
exchange
bracelets
zombies
seperated
involving
riverside
fridges
cylinder
ankles
griddle
mmm
volkswagen
sunbathing
sunbathers
origami
necessary
composite
dreadlocks
mamma
bumping
fetch
emptied
monoch
investigates
duty
parakeets
pomegranate
blindfolded
vespa
chugs
pamphlets
fisherman
mulch
##interior
gamebaseball
wrinkled
exercising
plywood
arcade
pinstripe
traversing
purpose
calzone
yawn
engraved
harnesses
trinkets
koala
flooding
adjoining
milkshake
balconies
bulldozer
bystanders
scantily
exploring
expansive
unbuttoned
##military
isolated
crucifix
arugula
trouble
##chicken
deflated
##uplicate
processing
wheelbarrow
artifact
parliament
vinyl
##chocolate
atmosp
scuba
cheetah
remarkable
anchovies
14
22
54
5th
aver
bomb
dine
dedic
falla
footh
fowl
gal
icea
ly
lee
lily
mack
praying
rent
ranger
tp
ww
wast
##low
##lery
##aled
##aiss
##cass
##cats
##iut
##iques
##uled
##pee
##pill
##purple
##mies
##sion
##nched
##gul
##gles
##giving
##fort
##foot
##wa
##0th
##bug
##baked
##zu
##erie
##leg
##arf
init
inlet
##rela
##roc
toa
stake
##ouched
##isc
mandar
##lac
##ooted
##ersome
##oline
sittinga
aren
pecks
peper
peopleseveral
plump
##lock
tablemany
streaks
dodge
lapt
frosty
fiving
bovine
##ado
cater
upan
pike
piping
flas
ricks
carstwo
carcass
outward
fieldsmall
nearing
tended
parkseveral
grits
baseline
##still
##inds
grasscows
sideway
##entic
bathe
bathrobe
##boarda
##airplane
susten
fort
hertwo
pizzathree
##thouse
backg
backtwo
woodland
greenhouse
lik
lived
limo
otheran
##imeter
toiletan
pics
cause
##irty
##rely
waxing
ballsome
ballwoman
diska
alga
slate
truly
asking
##ume
chairthere
chairsthe
frisbie
aroundan
##unge
scouts
lightning
lightening
tress
handan
handsthe
tapes
taxing
underway
ravi
swat
reeds
review
bowing
dials
courtthis
cutlery
togeth
couchthere
##quee
##quely
plating
platethree
prec
hyrd
hydr
racketman
wiped
wiener
wizard
mountainthree
imag
giraffesa
mock
stationthere
bananasan
cupc
enclose
prosc
corks
themseveral
drivinga
lod
locking
broccolli
kne
knack
knelt
skateparka
hanginga
donation
pastram
##tening
curio
mary
marquee
barsa
barstool
tricky
airportthere
mein
##acle
linole
orphan
baltim
abouta
respon
silk
intersectionthe
rocksthe
grease
amish
booster
vehicular
enclosures
enclosurean
pills
exits
exception
attachments
enginea
femin
markets
catsup
##died
movinga
creates
bushestwo
yardtwo
rollers
vancou
##ista
pedals
arranges
schoola
pedestals
tranqu
winethe
earl
concret
##pole
cattlea
soul
planesa
profession
##linea
stains
bakers
designer
##banana
roots
sunglassesa
mache
funky
##bridge
bagg
bakes
cardigan
twins
struggles
plainsa
posting
pawa
mushroomsa
outfita
pastrya
sprinkling
spotlight
bacona
deploy
logsa
frostinga
remotesa
semin
terminals
##crafts
maska
individually
mitta
delivers
houseboat
formationa
rosesa
sticksa
firs
cros
cropped
crotch
fingersa
coolers
tucks
tugging
strawberriesa
report
repaired
stickersa
jobs
prince
tirea
countertopa
dumplings
secured
sprayer
multicolor
magazinea
onlooking
uniquely
films
services
warms
elk
eliz
elsea
protein
baya
toothpast
descent
scarfs
illuminates
stripa
recycling
learns
slam
junglea
##truck
quilta
valleya
actors
arrival
colleag
rules
trougha
closest
diamonda
portraits
bridgethe
possession
stablea
texts
briefcases
renaiss
departure
happening
kettles
careful
wheelchairs
expressing
gallon
gallop
sixt
shrubberya
grinder
ferret
cockat
trots
bulletin
tilts
carnations
ascends
similarly
oversize
consuming
consumed
nutella
latt
released
shavings
myster
nibbles
necklaces
scoops
mechanic
website
graphics
screentwo
flannel
participate
cruiser
estate
general
purchasing
purchased
diagonally
barbwire
patrolling
whisk
whiskey
handlebar
enthusiast
trophies
vivid
##beach
vineyard
wilting
drizzle
affectionately
rumm
sleeveless
bustling
artsy
encased
bracelet
vasetwo
charming
##ourish
spectatorsa
experien
task
sittin
stovethe
choosing
documents
weaving
proceeding
hoof
kilt
beetle
unidentified
adobe
investigate
zoomed
parakeet
stranded
broccolithe
cellphonethe
successful
executing
michigan
plastered
foodstuff
louis
snoozing
envelope
fascinating
smirk
advantage
exactly
suckling
advanced
crossroads
##ydrant
inserted
##assembled
highlighted
lollipop
##doughnuts
scarecrow
splayed
firehydrant
birdcage
scottish
quesadilla
authentic
tapestry
essential
##family
associ
afghan
cigarettea
thanksgiving
adolescent
drenched
mlb
convoy
trestle
obelisk
taxidermy
average
sustenance
ravioli
pastrami
linoleum
orphanage
baltimore
vancouver
renaissance
1st
34th
45
53
bellow
cir
cri
cilant
dc
dull
data
duplicate
final
felt
gator
il
icon
jous
juts
jones
ka
lur
mr
nach
nath
nesting
pf
raring
sips
tid
vod
vcr
wound
##late
##lie
##ael
##cd
##cas
##cissors
##irely
##eers
##eople
##ridge
##oting
##uv
##ule
##uge
##ueling
##pm
##pd
##more
##vag
##gas
##farm
##wine
##hell
##bra
##bages
##60
##init
##into
##itution
##eral
tham
thous
anoth
##althy
toiler
stead
staged
stenc
##omic
##asket
##owera
##orama
##chop
##chief
##oura
manue
manhole
sites
sitea
##ilation
##otes
wharf
##oly
##abeth
pew
tramp
peoplethere
##urally
shabby
itwoman
ros
tablefour
tableta
chem
chari
choc
streetred
streetmany
lac
launches
fier
fives
holdinga
smash
##acked
batan
##antas
##antled
##amous
cath
catsa
##ional
groupa
##ruck
carves
dogstwo
outthe
outlined
fielder
nearest
snowpeople
snowskiers
##nister
##ulate
parkan
parkthere
grates
grater
blackberries
busan
busthere
buspeople
basina
##eller
##stat
roomman
airy
grassseveral
grassfour
bypeople
watercraft
##enta
buildingmany
buildinglarge
##mbo
comically
foodpeople
foodseveral
coop
skateboarded
skateboardthere
woody
lilac
##imposed
overla
overcoat
beartwo
caut
caked
roadsa
balltennis
umbre
disabled
disassembled
motorcy
slid
sandal
sandtwo
windowstwo
opentwo
chairstwo
browned
lightan
treethree
tailed
wallsthe
opener
spell
trucked
frisbeean
dive
divers
##ichen
clinging
##apera
apric
##quito
##lya
backgroundthis
prepping
##agonal
lev
goggle
oceanman
##angles
hydranttwo
##ormany
rackett
floorthere
floorseveral
displayan
displaythere
counteran
mirrorthis
dirtthe
animation
standng
standstill
mets
save
hillpeople
hillseveral
headtwo
modeled
zebrasa
slopethree
advis
uns
unz
unlit
unplu
readya
camps
corded
varied
##ultaneous
##corated
pastor
poletwo
polethe
keyboardtwo
perimeter
cabbages
curling
marmal
controlsa
kitesseveral
dinera
posinga
ladybug
applic
bookbag
himtwo
somethingtwo
restauranttwo
runwaythere
mules
pilea
slicea
helped
darkly
lookers
waytwo
suitcasean
postal
##rone
teaa
##oons
cookbook
flaps
windowsilla
assists
penns
pendant
crepes
urinating
workinga
notice
toppinga
yardan
skateboardinga
entirely
director
garaget
applying
concession
dinnerware
ninet
frisbeethree
graffit
sailboard
racksa
tarmacan
flyer
southern
##dela
##landa
##lands
smoked
##sethere
designsa
turnt
##ughter
controllerstwo
clam
crusted
twp
twist
dollars
constructiona
disco
bottoms
mixes
mustang
gliders
glares
strain
sweatera
pride
casing
casethe
casino
goodby
stillness
powerful
##plants
writings
courthouse
simultaneous
locomotives
collide
colliding
collars
tailgate
awful
flowna
usually
navel
winga
magnific
auction
shadowed
aheada
crut
enjoyed
picklea
surfacethe
crusta
bookshelfa
herselfa
accessory
largely
largest
scared
everywherea
backsides
frisbeesa
throwna
sunlighta
idea
dispen
embell
brave
braves
canopya
porcha
scarfa
relatively
operator
puddles
grim
musicians
geor
storma
##trucks
regal
institution
obstaclea
wrappera
lobsters
gooey
googly
convex
excellent
phonethere
listed
ruined
pensive
facet
##variety
decre
headboarda
happen
extravag
piggy
pigtails
germany
payphone
superimposed
opponenta
dressinga
foga
scratched
outsidethere
torto
edited
hutch
mailboxes
realistic
rabbits
merging
afternoona
rimmed
huddling
oceanthere
sledding
assembling
memory
crowns
italy
crumbled
browse
wavestwo
rodeoa
##elect
wrestler
tickets
detailing
graduate
screw
ripening
welcoming
barbie
clipboard
sparklers
burritos
dalmation
whiskers
recreation
accentsa
clutches
sideline
rooftops
chilly
chillin
unbaked
squeezing
lanyard
scallions
oventwo
oventhe
nerd
malays
llamas
miles
original
announcing
##passenger
installing
2012
##rosse
splits
organization
admires
pomegranates
grumpy
sheepthe
fluid
judges
wakeboarder
diffrent
##doorway
uncommon
correct
atlantic
footprints
coordinating
trumpet
dividing
wardrobe
shrine
irish
sheriff
scanner
simulator
longhorn
nypd
violet
brochures
determined
aggressively
yankees
whirl
moustache
dismantled
telescope
brook
peson
tigers
redheaded
collaps
avoiding
unfurnished
thermos
innocent
##breakfast
egyptian
stunning
whimsical
atrium
corporate
crossbones
sombrero
shawl
##iutto
peperoni
likely
algae
prosciutto
feminine
tranquil
deployed
seminar
elizabeth
mysterious
cilantro
jousting
unplugged
magnificent
42
astr
bard
bones
crt
cors
cinder
dw
dood
dice
etched
fathers
ging
gain
han
hurt
ion
jama
kl
kart
mort
nad
nourish
oy
preen
rumb
rental
ranges
sar
sched
sinking
sending
ted
tacks
tangle
vista
wad
wond
wiring
xbox
yells
##lice
##iera
##ivid
##eight
##okes
##uct
##mus
##mings
##sandwich
##nk
##kk
##vases
##gated
##gling
##france
##dom
##dder
##dark
##driver
##wy
##hi
##hs
##how
##hum
##hist
##you
##ygen
##bet
##zona
##5th
onthere
onetwo
##atar
inc
inthe
##real
##rets
##ront
##eddar
stoned
##essing
##onn
##etland
isa
iss
##irates
##iser
manmade
##ilt
whats
whether
areal
##ardi
buzz
bugs
buckled
skilled
##itement
peg
peal
##urst
shing
shetland
whiteboard
itperson
##nthree
tablets
tablevarious
challe
cheap
cheddar
doortwo
pared
parading
toped
topsome
batsa
downed
downwards
flutes
##iona
sna
snail
cartoons
outline
fieldyoung
##vela
tender
clover
##ulating
parkman
surge
##stown
##individ
blt
airfrance
##ssy
sevent
sewer
beaked
motesa
element
elements
giraffetwo
pizzapeople
overripe
beachfront
clockthe
toiletthere
cak
##range
girlfriend
wagging
ballthis
compared
picturean
disks
disca
benchthree
slowing
motorcycleman
laptopthere
laptopman
intended
windowthree
grade
graham
througha
openthe
gamepeople
boaters
computeran
decl
wallthree
raise
##estreet
reas
colts
surfboarders
outsideman
reached
reacting
umbrellaman
suites
bananathe
clicking
##playing
skypeople
cutouts
contending
abs
flows
fender
##quis
dribbles
soar
soiled
platestwo
kitepeople
dougn
standsa
prepped
##agers
##ublic
hybr
lei
oceanan
##dogs
counterthere
wipe
mountainthe
mountainthere
animalstwo
chevy
imm
immed
brilli
guinea
headan
headphone
fading
failing
ada
unm
cupola
imagea
ending
proble
provid
prone
crowed
boxer
boxers
boxcar
signsan
loses
longing
kneep
refrigerat
refrigerated
emirates
kida
tracksthere
keyboardan
##outdoor
emptya
highest
curt
curves
marath
kitesurfing
televisiontwo
meant
meand
itemsthe
homeplate
himan
traythe
drinksthe
dishing
resp
showerthe
##ials
rainthe
rampan
screensa
noon
lookout
waythe
matter
zooan
zoothree
enclosurethe
##izes
foresttwo
armored
skiersa
branchtwo
pickled
engages
cleana
feeders
hos
countrysidea
birthdaya
flakes
workbench
creatively
creatures
bushtwo
trailtwo
urine
partaking
platformthe
shortsa
yardthe
tiers
##heard
##healthy
##chester
centre
geared
saucepan
flya
glob
spooning
footlong
matchthe
bleak
quad
soups
##scope
churchthe
##yclers
messenger
clothesline
former
reflectiona
breakfasta
trasha
##racted
loader
overlooked
weddinga
##few
kickflip
icecream
bail
bagged
touched
struck
dollop
transformed
mixers
portray
washbas
mustach
netbook
##soft
##soccer
smartphones
modeling
toasta
waring
positiona
propellors
classy
selfies
medit
presid
sculpted
streamlined
paintbrush
charity
passesa
completed
housethere
patterna
croutons
shoela
dimension
##bowls
##comes
cyclesa
troll
muscle
##burg
icinga
chinat
studies
londona
shadowa
olivesa
jara
liquida
##vania
joker
crink
goata
bootha
folders
leagu
lifea
##nected
chested
chestnut
meadowa
comfortera
peeler
billows
morea
elvis
interacts
duster
timey
protects
stepa
besidesa
grima
##ordic
talkie
hippo
fenceseveral
infamous
regarding
closeta
soaps
trimmings
dances
excitement
fauceta
collected
umbrellathree
villagea
rafta
bridled
facethe
nowherea
eager
savannaha
criba
rotating
logos
robin
attracts
newlywed
cakethere
gallops
maps
bordering
oxygen
remodeleda
kingdom
fern
waterfalla
kitchenthis
protestors
renov
scrubs
pirates
definit
breasts
breasted
##fruits
theres
barefooted
jammed
conventional
ascent
smoothies
spaniel
undone
20th
hornsa
##ylvania
brownish
finding
wrestle
oakland
bootsa
booties
awnings
beaten
hundred
wonderland
sandwhiches
drainage
daisy
##workers
untouched
functional
persian
gowns
##bicycle
sundown
lampposts
rushes
venice
amazed
shrubsa
choice
hashbrown
lakethe
protrudes
lockers
skewered
swirl
brussels
succulent
wreaths
charms
prominently
riversome
execut
shoveling
representing
lavishly
popsicle
efficient
bumps
sundaes
spears
zooming
mingling
looming
citizen
executes
uncomfort
pamphlet
stabbed
teachers
pomeran
footpath
culinary
##juana
developed
unwrapped
artichoke
cosmetics
journey
lensa
siblings
##iseshell
swords
require
quantity
arizona
fulled
vietn
motorcylce
sweeper
improve
politician
wispy
mosquito
settee
triumph
twirling
recessed
abovethe
dandelion
williams
borders
##lephants
handrails
sturdy
carpets
replaced
monochrome
atmosphere
dedicated
leeks
rickshaw
earlier
professionally
essentials
vodka
##intosh
thousands
campsite
marmalade
pennsylvania
goodbye
simultaneously
crutches
decrepit
extravagant
tortoiseshell
whirlpool
astride
klm
challeng
##individual
hybrid
dimensional
grimaces
definitely
pomeranian
29
ax
arial
ci
doo
dent
dap
dub
dumb
densely
fear
gh
hull
harm
idi
ironic
ign
kris
kong
ling
les
later
lunches
lorry
lcd
mt
mol
mig
mun
mold
nip
oin
ora
prow
pun
pak
pines
pray
puffs
ree
swo
send
sens
vying
wile
wren
weap
wishes
##lt
##lis
##lone
##aware
##cute
##oa
##ogs
##pear
##tw
##tall
##tourists
##nies
##nets
##nants
##vice
##ford
##die
##dney
##ht
##hirt
##hey
##hilla
##bar
##bull
##bows
##jacket
##inetwo
##erub
thi
onpeople
ontop
##atta
inh
incor
inde
##reau
##roit
toga
##omething
##etic
isra
##orant
##chef
##outing
##oured
mantwo
##elding
##idng
negle
whate
whizz
wholly
##uted
##icy
##icemen
bubb
bureau
pebbles
trapped
##ebook
twoa
plaques
streaking
chart
chance
chilling
chuck
cherub
doves
lack
lacy
beware
fron
boars
##sepia
smalla
##ada
##addled
upclose
upturned
pian
riv
rick
fieldone
fieldblack
fieldcows
tented
closes
##ulf
##ulting
tennisan
##sts
##stalled
##straffic
##ayoung
##indrical
##plete
blues
blizz
aircrafts
grassing
grassthis
grassmany
grasszebras
phys
##entric
##ueled
##phia
bedseveral
baseballtwo
playroom
playstation
##pted
skateba
suntwo
suzu
##zzy
cove
cobb
##thest
beaded
beacon
greensa
poke
posh
beachwoman
menacing
##rella
##rellas
waxed
ballthree
ballbaseball
compass
complic
citypeople
moutain
benchpeople
townthe
slick
slug
motorcyclestwo
##orescent
windowthis
glassthe
glassestwo
grav
scones
taila
tavern
delect
ragged
vegan
spind
trucking
truckpeople
swarm
frisbeeyoung
bannister
##gger
diverse
diorama
treeseveral
bananass
bananastwo
treefour
##ctioned
togetherfour
togethermany
sandwiched
##lyn
backgroundpeople
sole
viewpoint
plats
shirtsa
shirtthe
hyr
piecea
goa
hyde
passa
racketan
racketta
displaythe
airplanean
vegetablestwo
refueling
mountainan
mountainstwo
chewed
flowersan
towertwo
hillthere
hillthis
groundthere
##parents
hangers
waveman
uneven
tieman
encom
drill
hatan
boxcars
bespect
##pecially
crossa
signsseveral
acou
suns
known
##corting
televis
glassesthe
clea
slopean
pasted
pinkish
##tened
polethere
trackthere
walkan
umbrellasthe
umbrellasthere
curvea
marg
barges
chairsan
bodya
patting
mont
throwa
jeta
papered
somet
somber
##acled
booktwo
riveran
riverboat
railways
cansa
canning
ramptwo
sleeved
##ashes
plantain
runways
balck
mouthtwo
mouththere
intersections
greets
nozzle
nobody
hauled
lookign
##cling
matress
photographic
zoothere
zookeeper
posttwo
mealtwo
salvation
multist
scenea
hush
expect
triangles
mousean
chocolatea
freest
included
shelfs
hosing
hoisted
saladthe
cooktop
shaves
flap
worka
tablesmall
layout
##dib
crescent
wallsan
pathtwo
paired
drawersa
tiki
singer
carriers
##istan
styling
eyea
eyeball
necked
othersome
frisbeethere
tarmact
staircasea
winner
earsa
earbu
footstool
souven
##screen
goldfish
juices
steambo
staringa
smok
farmhouse
trashcans
strawa
retaining
pools
framing
signala
clams
jumpsuit
shoving
propane
modem
circuit
##desk
intercept
picnica
decorationa
electricity
cakesome
pastaa
glis
antiqu
walkways
missh
warped
candlelight
cornbread
sydney
bullpen
classical
useda
headsa
headscar
bouquets
medley
medals
mitten
jeff
hoods
condom
grooms
personalized
cubical
cubicles
caravan
eyeing
pinto
freezera
simps
simulated
beveragea
spreada
microsoft
housetwo
peter
snacking
hearth
firm
croquet
alsoa
garbagea
rubb
planetwo
usea
usual
reporter
tastefully
wingsa
confin
fountaina
picklesa
safely
weathera
crusts
cranberries
ceramics
calfs
servicing
grandma
grandmother
aprona
prim
timethe
poppy
sidethere
devicesa
pleased
illuminating
pugs
dispensera
hometwo
thank
insides
antlers
ribbona
themselvesa
detroit
dancer
example
examined
warehousea
knivesa
strate
outsides
movable
owls
greenerya
bridgetwo
badges
splashed
limba
canala
textbook
unfolded
consolea
beanbag
britain
extendeda
##maid
tarpa
##mont
shapped
lieing
chinaa
gerb
stomachs
stripesa
checkout
suburb
snuggle
spatul
edged
mapa
informational
huta
menua
inflated
scraps
handbags
wallpapera
cityc
dunking
crests
##skier
conventiona
escort
drooping
tulip
cagesa
mexico
instructional
releases
##guys
occupants
cemetary
expressions
webcam
flushed
screaming
anni
anno
noodlesa
knickkn
swimsuits
jewish
technique
untied
clippers
wristband
effort
stays
scrubby
pearls
atvs
dumped
dummies
terraina
aero
buddy
specially
astro
criss
##cupcakes
burgera
congratulating
frisbya
tackling
pipeline
swirly
minimalist
unatt
southwestern
lanea
abundant
vasethe
livingrooma
experiment
exhausted
cylindrical
##crowd
scoreboard
unpainted
strokes
especially
escorting
valve
erase
insidethe
cashe
fifty
fifties
fifteen
altern
feeling
distancetwo
surgery
peripheral
installation
2013
emptying
turbines
dutch
answ
kennel
since
fluorescent
supreme
runaway
wiithree
blindfold
dolphins
luggagetwo
luggagethe
successfully
buddha
boutonn
negot
negative
foodstuffs
##basket
atlanta
lakeside
umbrellasseveral
thirteen
segments
disembark
mimicking
development
uninstalled
artichokes
ingredientsa
paragliding
worms
clippings
appreciating
dwarfed
hopping
valentine
refreshments
promotional
togethersome
depiction
caddy
pumping
rye
slushy
bleeding
vitamin
gnawing
pylons
wrangling
wintry
intertwined
appealing
sauteed
fancily
yawns
foothills
##pillar
mandarin
caterpillar
sidewaysa
precari
hyrdrant
cupcakea
barstools
crosstown
toothpastea
lattice
gatorade
illeg
thames
lacrosse
fierce
cautiously
gogglesa
unzipped
george
dwelling
reason
kneepads
washbasin
chinatown
renovations
uncomfortable
vietnamese
wrenches
israel
whatever
blizzard
suzuki
complicated
delectable
encompass
bespectacled
steamboat
16
23
31
32
33
51
70
az
ack
avid
cp
ecc
flee
faster
gin
gong
hp
hight
hong
hub
hops
ipo
ja
jutting
jello
kar
nw
niche
nordic
om
oh
opt
ps
pran
poun
pago
qantas
rind
sut
sown
sul
soph
ting
tink
trel
tummy
tipping
vice
wides
wella
yes
zipping
##lif
##lorn
##count
##ii
##ias
##iors
##ifferent
##eveled
##rase
##rated
##osed
##uar
##page
##pery
##pip
##pac
##pige
##pants
##mir
##mic
##mera
##mering
##maker
##tray
##kate
##vin
##vable
##vane
##gic
##fc
##fy
##french
##fried
##dis
##down
##wind
##had
##high
##bour
##bby
##ji
##zar
##iners
##itt
##ancy
thor
thri
##atw
##atives
##atters
##aran
##arking
##array
themb
inning
inset
inquis
##ref
##redo
##rom
##enas
##aly
toting
stting
steth
stitch
stern
##omebody
##onnected
##cka
##ording
##orda
##irst
##ounding
##ising
##isome
mand
manger
manhat
##laim
##elots
##eluggage
##idding
##otation
##otive
staning
##arda
##aber
##ebl
##ebasket
##urb
##ablea
shave
shuff
itgroup
itwhite
itcloseup
roaring
plying
tablepizza
cham
chipping
cough
streetlarge
lak
laced
beast
becoming
boeing
smith
smal
personthe
##ador
gira
downstairs
downhilla
catam
cattwo
cathol
rib
carsthe
dogan
outan
fieldzebras
snowsome
fronttwo
##ulation
surv
##ellas
##stain
##stery
roomseveral
roomsmall
ridinga
airthree
phrase
waterbirds
##enthree
buildingthis
buildingssome
buildingstreet
##airport
comics
##pthree
##pthis
sunthe
susan
##ycler
forage
forlorn
foodthis
core
cocker
coating
code
coals
horri
horsed
skateboardman
backlit
motestwo
woodpe
poem
giraffethe
otherpeople
skiera
motors
motorhome
##imp
beachfour
eatting
clocktwo
benz
benef
toiletry
toiletbathroom
desp
condo
ballon
ballpeople
ballyoung
compound
comparing
cityseveral
disap
boardsthe
trud
##ongated
##shore
##shire
glassan
grainy
aroundthe
aroundpeople
##una
scatter
lightstwo
lighthousea
treks
handthere
handman
handwoman
horsean
photosa
deskthis
decks
deca
deod
openan
spig
spouting
spicy
cakeman
swaddled
rev
reind
frisbeeman
frisbeepeople
bang
colour
collabor
surfboardan
surfboardsthree
division
treespeople
treessome
##sail
suittwo
##single
clings
clumps
courtman
courtthree
skysome
skymany
##apor
bowler
mak
maca
togethergroup
bizar
drier
drifting
dribbling
tees
skisthere
birdtwo
hyenas
##angers
vegetated
trafficthere
passer
floorthis
vegetablea
refere
sidewalkthree
mountainsthe
cheet
said
saver
toweran
hillfour
impo
dayseveral
daybed
##veland
hangera
carsan
restra
restric
##eyoung
addition
unaware
tieyoung
envelop
prom
##ipp
thempeople
themsome
variations
loit
logging
##essmall
knows
skiingtwo
emot
emph
dooran
doorste
slopepeople
pastea
remnants
leavea
leavestwo
talbe
polestreet
walkthe
barrow
barrela
kitesthere
kitesmany
jumpinga
televisionthe
bottletwo
soccor
talkingtwo
aging
soccertwo
airportseveral
ladya
patrick
monte
meets
paperthe
itema
booklet
homey
cano
canon
canister
traythree
drinktwo
pitchera
clouded
disheveled
##ollia
muss
tilesthe
brushtwo
lightsan
##gray
facean
mouthan
##arman
rocktwo
##athered
numbersa
tuban
handset
booty
showna
looka
tye
##ertime
zooseveral
forestan
pillara
adulta
startled
blankettwo
blanketthe
shopthe
displayeda
forkthe
commuting
frees
##space
painteda
cookiea
flair
donutstwo
##jockey
smilea
##ddler
steet
cartons
distrib
pawn
paused
tietwo
mountainsome
newest
shores
milks
applied
conco
landan
modernized
heaped
centers
duo
curbthe
##versary
flattened
phonesomeone
fireplac
arta
artful
creams
souffle
woodsan
stylea
serveda
##dees
bushesthe
forms
formed
devoid
smoky
harper
farming
foodsome
urinalsa
dockeda
burn
cracks
shoved
according
bails
baza
baord
approached
cloudsan
advertise
twink
twists
sprig
sprint
magic
glim
##daughter
riderless
network
sweaty
sporty
##kerchief
toasters
tomatoa
draught
supported
##cover
growling
##gulls
openeda
useful
leafsa
##gonomic
indifferent
climber
masked
stooping
freezers
housed
laminate
##bikes
snacka
snacksa
separates
sculpturea
hummus
fingert
delicacy
toastera
##bury
planet
planethe
patchy
tabl
tabler
labor
tastes
observers
rangea
joe
cratea
printing
weathervane
crusty
sadly
tiresa
radish
##wasaki
frisbeesome
avi
avatar
customized
grapesa
illusion
bandages
servicea
granddaughter
jumble
elbows
elongated
primar
attempted
moma
mommy
brah
braids
progressa
instructs
ringed
fabulous
relief
operate
##isticated
##personal
slabs
homer
comforters
parachuting
recept
receives
fencethis
plazaa
barriera
trima
europ
berriesa
bedspreada
bedspreads
crosseda
materiala
cauliflowera
anytime
anywhere
desksa
forksa
minute
ruck
marrieda
bridles
facebook
freewaya
attendees
windsurfs
companions
garnishes
buggya
floaters
briefcasea
sharpening
festivala
rotunda
bluebird
sneakersa
pressure
printera
exposing
checkers
checkpoint
gyma
boardwalka
##ultiple
emerges
gourds
arrayed
guestsa
tortoise
jeeps
foaming
##pancakes
cuttera
sleds
squared
plentiful
queue
torches
##semble
windshielda
##office
outfielda
flex
admired
companya
moneya
jams
carnation
oceanthree
adjustable
contemplates
dugouta
parasailinga
ascend
pillarsa
##motor
pouches
consume
demonstrate
demonstrates
193
200
celebrationa
signthree
rancher
destinationa
latin
latte
watermelons
mission
finch
occupying
machinesa
bronco
victoria
morninga
businessesa
wondering
icicles
lessons
wigs
scream
contrail
fencesome
applesauce
techniques
until
luggag
gingerbread
barbersh
calculators
productsa
##business
tournamenta
##clean
##ateboarders
vender
thinks
brothers
##grammed
ratchet
vegas
budding
cheeks
obscene
astounding
safeway
cannon
horizontally
continues
markera
receiver
lakethere
title
skewer
swirled
preserver
50th
partitions
pleasure
bonnet
encount
feathered
foilage
lapsed
scallop
fueling
battleship
fridgethe
nerf
suitcasethe
occur
stroke
sittign
addresses
mallet
sippy
recognizable
hatchback
impression
ergonomic
disgust
##iction
cheerle
cheerful
biketwo
acrobat
utilizing
##entedly
monogrammed
organizer
spools
judged
buddhist
gladi
michael
mangos
martin
martini
explore
oreo
passageway
envelopes
fascinated
rolex
girraff
girrafe
segment
mousethe
moderate
tartar
zebratwo
gracefully
spokes
cosmetic
sibling
manipulated
manipulating
chaps
sworda
stamps
believing
furnishingsa
gatetwo
##towels
loosened
volunteer
july
##watch
##lamps
##iliar
cocoa
intriguing
technician
unicorn
trackstrain
ripeness
kabob
nudging
##heads
stitched
grille
distinct
wastebasket
flask
togetherseveral
reporters
cockatoo
kawasaki
nachos
trampoline
apricots
application
grimacing
institutional
##electronic
screwdriver
nourishment
dougnuts
problem
provided
refrigeratortwo
marathon
presidents
executive
moldy
migr
incorpor
neglected
cobbler
acoustic
multistory
earbuds
rubbish
spatulas
anniversary
annoyed
knickknacks
cashews
pagoda
sophisticated
trellis
catholic
decaying
bizarre
primarily
barbershop
17
2nd
99
ak
avea
awards
achie
bach
ct
cy
ced
ces
dur
dran
ease
eps
ecla
ferries
fett
gle
glas
glee
gond
gump
gaining
hone
hurry
hila
jay
jord
ls
lind
list
leathers
lunge
mull
mement
mower
mills
masts
nigh
nation
nib
oj
pilled
pint
pist
puffed
roping
sisters
sorry
tam
teat
um
vapor
ye
##loo
##lim
##look
##llic
##looks
##cand
##cent
##colored
##ik
##ieth
##iently
##ecting
##rice
##rint
##oor
##oilet
##uk
##uch
##uve
##under
##mill
##mini
##mount
##mountain
##snow
##tes
##tak
##tling
##treet
##nc
##nea
##nice
##nip
##kite
##gent
##geseveral
##fig
##fans
##ders
##dirty
##wide
##word
##hns
##bon
##inet
##inness
##itage
##itory
##erving
onboard
##lest
##arison
ing
invis
incom
##rey
anx
##roof
##eners
##enced
##edog
tolit
##onds
##cho
##chy
##chool
##ision
manager
##lakes
##opoly
##rains
##alling
##elict
##elittle
##idas
##iddle
##ilhou
##ilia
##olis
##olds
areaman
##iculous
##abatta
buiding
peope
pecans
##eber
##ebear
peoplean
##urer
##urban
sham
shove
shish
itone
itred
itvarious
itstreet
roles
womantwo
holste
##lose
##locked
tableman
tablegroup
tablecat
stree
chir
changes
dole
cousc
##herita
streetc
streetfour
streetgroup
streettraffic
streetcity
laun
topseveral
topthis
##sem
##sey
smells
##cepting
batthere
batches
##adent
##riage
flurry
fluffed
flotation
ripp
sno
##run
outwards
fieldgroup
fieldlarge
fieldhorses
snowthis
snowball
snowfour
snowmen
closea
trainseveral
##ignment
parkthis
grat
blackened
busily
basking
surreal
signstwo
signsthe
##stage
##aya
##plets
kitethere
bluff
airthis
grassgroup
grasssheep
redone
sidecars
##ights
watermark
##enthus
bathes
##vings
##boarders
bedthree
baseballbaseball
skatboard
##mbers
comea
combed
seea
walkingtwo
bathroombathroom
suds
##zzled
heritage
pizzathere
##eart
kitchenseveral
backsa
backthere
beaver
woodsthe
licked
pods
giraffestwo
pizzaan
otherone
skiiing
skimpy
motorist
overtop
overex
overheard
overtak
bearan
elephantthree
##emor
roadman
roadsome
roadfour
roadblack
constru
ballroom
ballpark
ballplayer
comparison
citythis
disarray
alon
allo
benchman
slou
slips
slathered
motorcyclean
laptopwoman
laptopsthree
birch
childrent
sandan
glasstwo
airpeople
areagiraffes
boatan
boatstwo
chaircat
lighttwo
treading
handy
handkerchief
taill
taker
taught
taht
lita
deformed
coveralls
racc
spans
spend
##estically
cakefour
swishing
firepl
reen
bannera
columb
outsidemany
bowa
bunnies
treesman
suitthe
clin
clinton
courtseveral
courtwoman
##apore
cutters
ability
appla
##vesting
maze
mauve
showed
togetherpeople
bible
biplanes
drifts
viewtwo
skisthree
biggest
hotplate
##ube
lever
levela
pieced
oceansome
luke
##dozens
floorthree
vegetablesthe
dirtthere
##ilingual
##ourse
jumpthe
cheers
sav
parkinga
hitching
brides
daysome
guinness
mooring
mogul
fencecows
adn
adidas
bananasbananas
unhealthy
cupping
enh
ensemble
promo
corna
themea
themself
boxan
##peas
crossword
sunb
sunroof
loved
lovers
arching
abovepeople
knea
refrigeration
broccolibroccoli
email
keypad
kiddie
dont
donations
##corative
refrigeratoran
refrigeratorthe
clever
tallest
trackan
ridera
keyboardthere
decoratively
passengera
highland
highlights
cabana
umbrellasan
umbrellasmany
baron
barny
barns
bareback
tricktwo
trickthere
brew
breeds
smilingtwo
again
agree
remotetwo
remotestwo
allot
bodyboarding
pained
pattered
platesthe
monst
monopoly
nightan
foreheads
coffeep
bricka
meaning
meander
somersa
bookthe
watchthe
watchestwo
linetwo
himman
railthe
poly
##iance
somethingthe
drinkthe
plantera
plantsthe
##akis
##closed
resident
storethe
houseplants
##ocular
seatb
rockthe
amph
amusing
haze
darker
sheers
bridgean
postage
hairst
hairtwo
hairthe
##alet
decorateda
saloon
multit
candid
furniturethe
branchestwo
trib
trial
engulf
monitorthe
commemor
makings
obstructed
shelfan
shelfthe
performancea
hobby
##spass
cookout
cookbooks
marketpeople
rocksan
publica
tablesomeone
settingtwo
assisted
##uttered
##diac
squints
leavesan
leavesthe
crews
wallsome
urin
teeththe
pathan
smilesa
subs
freshener
stepped
paving
afar
afield
drawera
tiethere
singapore
doughnuttwo
doughnutthe
doughnutstwo
shorethe
directed
lampsh
necktiea
##itively
heap
pedaling
duvet
egga
glossy
##lessly
fishnet
fring
friday
fritter
frilly
spoonsa
objectsa
##scar
##scross
##scious
steaks
haytwo
airplanesa
devic
devour
smokey
ledges
rugthe
flagpole
farmtwo
turret
umpires
gardens
funnel
funeral
burns
cradle
craggy
kicked
approval
baggy
extensive
##idently
carda
propel
##goers
eventtwo
advertised
disconnected
sprints
figs
pondtwo
glances
##dales
stray
straining
nettwo
steams
chaina
capa
posea
goodsa
sheeted
peep
peeing
##ibility
pealed
grills
drape
draining
dragged
sprinkler
pierced
##coach
furthest
sorta
sorted
presidential
vanitya
hooda
rearing
semis
cubed
##mod
glazing
stoic
stoops
waiters
chargers
microphon
lifejacket
porridge
motions
celebrity
toothbrushesa
##iladel
pedestriansa
focuses
slopesome
planner
author
tucking
remodela
removable
visiblea
farther
coaching
coached
chilies
steela
napkinsa
tuned
joining
archa
archways
indicated
thinly
##while
bitty
foldable
hospitala
brushesa
stagecoach
drivera
connects
dishwashera
suspicious
bandaged
servethe
mattressa
digs
cushiona
lemona
prizes
interaction
sidwalk
sidethree
strollera
bracket
braided
cupthe
cuptwo
witches
golfa
roams
bikestwo
camerathree
operation
recycle
blindsa
awake
fairground
insign
fingerna
needing
hipp
bluish
sneak
sneaks
shorelinea
cereala
tooa
processed
projecta
projects
meetinga
examples
majestically
materialsa
binding
binocular
umbrellathis
folds
mints
helicopters
closets
struts
consoles
garnisha
garnishment
decided
macintosh
sharply
sharpener
tarts
tarps
##tooth
##hands
enterpris
kneesa
packagea
stomacha
pays
payer
superman
suburbs
cubiclea
nesta
guna
##construction
informing
sanctioned
##loyees
yorkie
avenuea
panthe
ottomans
routes
routea
kitchenthree
murals
upwarda
scrunched
merge
situation
areasa
coleslawa
james
tempting
grizzle
brunch
domino
poult
unde
broadly
broadcast
corrala
bleacher
slaba
droplets
hunches
takeoffa
slowlya
nutsa
wavethere
presentationa
hoursa
branded
miller
hurdles
wrestles
blends
ambulances
##agethe
##crew
mechanics
mechanism
webpage
##residential
madison
screenthe
equestrians
flank
blazing
blazera
crawls
##cision
##working
##worth
instrumentsa
stylus
cacti
grapefruits
spirit
diagram
rigged
chiqu
snaps
venturing
##bicycles
sunday
littering
dangled
frank
scrubber
zodiac
pearl
concerta
architecturally
columned
plume
refridgeratora
##team
terrible
vegit
crook
staples
choir
lawntwo
##ielding
continue
certainly
boxthere
##photograph
squeeze
universal
technological
30th
bonds
##lemn
programming
gauze
convenient
effects
incredib
##ourished
seashells
suitcasethere
hosts
weedy
weedsa
wildernesstwo
stroking
maln
rays
valves
buoys
impressed
autographed
gnarly
component
announcer
ditcha
dreads
hooves
khakis
shields
collectible
energet
fetching
overhanging
splattered
turbine
turbans
marijuana
broccolithere
jalapeno
foul
wiithe
derelict
chugging
dramatically
corrected
umbrellassome
reserved
exercises
##grilled
philly
mousetwo
disembarking
wiht
pinstriped
civilians
honk
jointly
brimmed
journal
odds
chapel
skimming
clasping
zippered
gelato
sponsored
sweeps
harbour
valentines
shuttered
severely
treetops
bannanas
hitchhi
manufacturing
sterile
traffice
clementines
inscribed
inscription
scribbled
buidlinga
cultural
manikin
alfredo
swivel
initials
lodged
colleagues
foodstuffsa
circling
chariot
##statues
motorcyles
nineteen
turntable
dispensing
malaysia
corsage
doodling
mortar
longingly
curtainst
shoelace
crinkle
leaguer
hashbrowns
succulents
ciabatta
dentist
idiot
reef
swooping
sensor
physical
hyrdant
margherita
misshapen
simpsons
precariously
eccentric
fleece
pounce
widescreen
##display
thorny
##atwurst
manhattan
catamaran
horrible
deodorant
reindeer
teeshirt
concoction
bazaar
brahma
drank
mementos
invisible
shamro
holstein
couscous
launched
overexposed
overtaken
raccoon
fireplug
promoting
barnyard
##iladelphia
poultry
incredibly
21
38
46
48
76
80
89
ae
ay
aids
billed
bras
bour
betting
bist
bern
binders
cert
cron
culture
ds
dera
dinging
dented
eof
filet
fang
fool
fists
faint
fueled
gut
grop
gains
gala
hd
idy
ide
jou
kt
kle
kings
kerry
kara
kfc
ll
lg
lut
lent
listing
ms
mind
mph
mcc
mime
mentwo
mardi
nd
naz
oe
oara
outing
pru
poth
pinking
punching
penthe
rump
ronal
ranging
sage
sap
saber
vat
vign
vie
void
vote
wish
wils
yams
zer
##lines
##lighting
##away
##aven
##cal
##cade
##cust
##iy
##iestwo
##iels
##ean
##ever
##every
##oom
##olet
##oscope
##uding
##pre
##pas
##pile
##mate
##mart
##sign
##sie
##sive
##smiling
##town
##nat
##nels
##namic
##kis
##vase
##vous
##vetwo
##gue
##gun
##gera
##gular
##glaz
##fall
##fic
##fied
##fula
##fisher
##with
##xy
##xel
##hel
##hip
##hese
##hose
##yons
##bard
##bone
##burn
##bare
##bunch
##beds
##zo
##itor
##itng
##itated
##itive
##erous
thr
ont
onthree
##atetwo
##aries
##redi
##reco
##regular
anth
withered
##roe
##romat
##enex
##alking
##alty
##edict
tog
tomb
tough
toront
ston
stna
##omin
##esy
##asant
##owls
##ckers
##ords
##ories
##iraffes
##chen
##chal
##outh
##ouac
manage
manchester
##lamp
##ladies
##opa
##opy
##opot
##raid
##raige
##raham
##elong
##ilities
##otorc
whi
whle
##oling
##olas
##gee
areab
##icirc
##eam
##eak
buis
bucks
buries
ska
sket
skyc
skidding
peple
standingtwo
trams
##ebrown
shes
sheda
shielding
itch
itold
itblack
itbathroom
##ffee
hollow
holidng
tablewhite
streaked
chats
chives
doge
counting
##hera
streetgreen
streetdouble
streetlamp
lacking
beck
becomes
fied
bog
boad
thatch
topthree
smack
smalle
##cean
batbaseball
battling
##ria
##rio
##rior
catalog
catnip
upd
pixel
snar
carve
carthere
carport
carseat
carraige
dogman
outlets
##ngy
fieldmen
fieldgiraffes
neara
snowone
snowperson
clogged
trainthere
traintra
frontal
grit
blackboard
##rowth
##star
##stack
roommany
kitce
kiteseveral
blast
grassed
reduce
sideboard
sideburn
phil
pharm
philadelphia
byseveral
waterone
waterwoman
waterblack
waterlarge
##ssh
##ssurfers
bedthis
bedlarge
basebal
buildingman
hasn
playin
##mble
sewn
seuss
playingtwo
##pter
skatebo
sucks
suffer
sunthere
forces
foodgroup
cokea
cocking
horsethere
pizzab
pizzaman
backh
backup
beaming
moter
motiv
woodsthere
woodwork
woodssome
poked
poached
pizzawoman
motoring
##image
overcooked
beachthis
benedict
bearstwo
picn
elephantthe
roadthis
conea
const
ballfour
compos
picturethere
pictureseveral
##ledging
gamer
gameman
gamethis
boardthree
boardsthree
alight
alive
benched
towl
slit
slum
motorcycleseveral
windup
true
trund
trust
##ores
childthe
##umes
sinkbathroom
glassy
grad
graces
grained
##tery
areafour
boatpeople
aroundthree
aroundseveral
eatingtwo
eatingthe
stopthe
tread
treeline
trespass
handthree
taping
taps
tapping
computerthere
underhand
wallseveral
wallthis
rags
rapped
railed
spill
spelling
spouts
spoke
trucker
swab
reverse
##ccia
surfboardman
phonepeople
##ggings
readied
bowel
bowels
bowtiea
treesmany
cowtwo
##sai
offthe
orang
courtroom
courtsome
courtfour
##grounda
skyfour
##aps
contentedly
abraham
bowlthere
bibs
biath
backgroundone
backgroundfour
teet
solemn
viewers
insidean
prevent
prefer
birdbath
studs
leggings
oceanpeople
hydra
passers
passangers
##dley
rackettennis
displaytwo
displaythree
countermany
vegetablessome
refigerator
refurb
##theast
wiffle
wieners
dirtthree
womens
animalthe
animalsthe
standin
standthe
##ousine
flowersflowers
sac
sax
fruitthe
trackspeople
imitating
bratwurst
moor
movea
##parked
wavean
vegetablesan
feels
restuar
stuffs
stationthis
slopeman
adop
middlethe
##icked
dressage
unle
unap
unenthus
unreco
##vens
enclo
camcor
camof
proced
##ipea
hatthe
hatman
corgi
themfour
themmany
variation
signsstreet
accepting
sunning
sunscreen
##ultural
lose
arctic
bikean
wording
brocclie
preparations
emu
winean
donea
##corner
refrigeratorsa
glassesthree
pinka
remin
remolded
leak
talbot
polesthere
trackthree
trackthis
ridiculous
keyboardsa
##cesa
##vised
bicycletwo
servers
bagtwo
bagthere
perman
perked
permit
walktwo
watchingthe
marl
marily
margar
barack
barley
barrack
barnthere
televisionthere
bred
pitts
pitbull
agric
catcha
soccerball
airports
tvan
stovean
setsa
bodyboard
cabins
platesomeone
plateslice
month
monroe
coffees
meowing
papertwo
##acles
bookstwo
watchtwo
homework
riverpeople
rame
ramping
traythere
sleeper
bedroomthe
somethingan
restaurantan
restaurantthere
hex
pitchthe
dishthe
plantstwo
##ersection
##alfa
runwaythis
brushthe
showerhead
##ishly
storepeople
pursuit
rained
mouthful
silos
houseplant
dresseda
monitortwo
nosing
nostal
panes
tubtwo
handsman
haunches
##weiser
##cluttered
grayish
enclosurethere
##izers
posture
postera
##toddler
showinga
uniformsa
outdoorstwo
microwavean
furniturean
started
stature
statutes
docktwo
dockboats
branchthe
tried
trike
pillowcases
engin
monitoring
forked
forktwo
commer
##ingsome
hogs
flowerpot
marketthere
workout
##intment
##intersection
windowsan
windowsome
fruitsome
settingan
squirt
squished
penalty
partners
workings
stacking
##dden
shortly
cartsa
pavers
pails
afraid
singular
familiar
computerstwo
entwined
newsc
vehiclethe
lampan
eyel
eyeb
appliancea
landtwo
landthe
landmark
ninj
townpeople
chickpeas
heaping
pedd
duke
ducking
dudes
curban
curbtwo
sailer
##tainers
bathtubs
boardsome
boardspeople
wheelers
passengersan
bowlsome
swimwear
stairsthe
pastures
earring
railroada
rights
##packed
oniona
schoolbus
##inium
plateau
distancean
backpacking
fanning
surfacegroup
bedsome
trunktwo
southeast
##scene
planesan
equipmentthree
steady
rounda
butto
fogged
##decorative
##tiing
deviled
ledgetwo
spaceous
designating
rugsa
harvesting
turk
seateda
hamp
harda
hardly
swimminga
crayons
##brightly
fram
frag
restrooms
clamp
desktops
shoest
skiesthe
eventually
twine
circled
ween
partytwo
interface
racehorses
transl
transfer
gateway
##keyboard
washers
magenta
##azard
glory
glitter
strains
strapping
sweating
chainsa
capable
speedometer
storks
sheetstwo
actions
mischie
bearda
palms
##ibles
warth
doorwayan
tomatos
peaked
bakeda
candlesticks
drainer
flippers
furred
watersea
watersomeone
mittens
leafa
leafed
##plated
indians
hoody
climbers
happya
calla
semicirc
ketchu
buttera
buttery
##actors
##fluffy
owla
pinning
pinwheel
charlot
growinga
tankless
fastball
aircrafta
solders
duckling
motionless
##compet
collision
bucketsa
delicately
ruby
##burgh
usage
autum
horsebacka
tuss
facesa
stringsa
expire
organizing
habitattwo
observ
cookiesa
johns
enjoyable
hillsnow
goatsa
bunkbed
volvo
downthere
forwarda
cliffsa
bands
bandage
pancakesa
nicelya
nativity
digit
abandon
combat
combines
converses
begun
idling
organizeda
populate
candya
braid
brakes
production
sonic
##chairs
witch
golfer
raiseda
cameram
sayings
grime
griaffe
slap
homethe
##ordinary
blinder
faira
insert
musica
sizesa
hikes
uncon
courtyarda
skinning
granny
goala
soapy
tatoo
shelters
phonethree
collector
wavinga
folk
minnie
mallard
messa
recorded
facethere
tastinga
nightstanda
nowa
cartoonish
halo
photographera
boring
decadent
protester
identically
portraita
compartmenta
panelinga
happens
beginner
backdropa
rotini
extraordinary
skyscrapersa
threat
threes
pocketa
campfire
campbell
saucera
expose
inspection
inspected
satis
skillets
gyro
easier
measured
anglea
cakethis
outsidethree
outsideseveral
chandeliera
loafs
environmenttwo
indiana
informal
grasslanda
##nesota
treata
meme
routine
slew
slept
junky
hawks
scrubbing
cotta
rhode
blocksa
flesh
flexing
mermaid
champion
retrieves
playgrounda
cautionary
adjusted
kayaker
sprouting
drunk
cluba
oversee
##nowledging
rockaway
escorted
pondering
statement
bouncy
brocoli
brocollia
signthis
studioa
browses
airplanethe
wavethree
accommod
nonchal
router
installeda
missiles
finan
omelets
occupies
myspace
octag
sighta
slipper
slippery
hookah
accompany
palet
labeling
##potted
machinethe
woolen
westmin
screwed
participants
blaze
alertly
treya
yourself
puppets
##knife
functions
pumpkinsa
contestant
barricaded
##motorcyclists
ventilation
##railroad
whisper
placetwo
murdered
injury
stereoa
plumes
gravela
graveled
clutched
amazon
goofing
laser
virg
magnetsa
budweiser
obscures
astron
drizzling
crisscross
attacked
received
preforms
tackle
knotted
dynam
kiteboards
stealth
preserves
minimalistic
arab
##photos
comboa
forresta
indiaa
bonsai
tonight
feathery
ipads
junka
tshirta
oventhere
photothere
phototwo
photothe
select
motocycle
altar
bounds
bounded
boundary
cylinders
##crowded
shakespear
dinosaurs
stovethere
dangerously
chooses
recovery
recogn
pennya
beret
berlin
romantic
manicure
##andwiches
spiked
illustrated
insidethere
marshmallow
composed
scotland
explains
straddles
distancethe
kiln
kilts
puzzled
dodging
interviewing
collectibles
receipts
disposal
driftwood
insects
eva
fourt
grungy
supple
microwavetwo
microwavethe
chimneys
vespas
chunky
snowsuits
snowsnow
lovingly
antennae
bolt
bolts
bolted
fishermen
tears
tearing
gamebatter
wrinkles
limited
limousine
##pedestrian
assistance
powdera
13th
bassinet
thirty
surveying
surveys
scrolling
moderately
australiaa
frumpled
slogan
graceful
advancing
purposes
sanitizer
chowder
beachsurfers
clasped
platebroccoli
torsos
lollipops
irregular
stamped
sponsor
differnt
predators
brochure
prohibiting
believe
politicians
representation
##lonely
loosely
triumphant
entrancea
volunteers
okay
zeal
zeeb
##cheese
literature
clementine
harvested
technicians
hilton
script
carriagetwo
unclear
barbecued
fantasy
kerouac
thighs
snowfall
alfalfa
offerings
weighed
##buildings
artifacts
corkscrew
response
exceptionally
firsbee
possessions
rummaging
firehydranta
nathans
chemical
cathay
lilacs
umbrealla
levitating
uncommonly
brooklyn
gingham
##human
immac
immediate
brilliant
requires
challenging
municip
pakistan
##chefs
whizzes
riverseveral
pokemon
menacingly
raggedy
eyeballs
souvenirs
smokest
headscarf
confinement
gerbil
unattached
alternative
answering
illegally
acknowledging
ipoda
psy
prancing
##pigeons
stethoscope
girafe
despite
spigot
revol
cheetos
restricted
loitering
emphas
##jockeys
glimpse
receptacle
cheerleader
girraffe
fettucc
gleaming
jordan
nibble
umping
##mounted
incomplete
##ilhouette
##sempty
rippling
clinic
savory
lampshade
recycled
insignia
hippopot
binoculars
##toothbrush
chiquita
malnourished
bourbon
bistro
idyllic
ktichen
kleenex
karaoke
oeuv
ronald
wilson
##glazed
##redients
toronto
stnading
smallest
pharmacy
refurbished
unrecognizable
enclosing
camcorder
procedure
marilyn
nostalgic
westminster
shakespeare
hippopotam
28
360
47
78
75
aro
ace
actor
avery
bp
bonea
bolog
cue
cess
cuff
cots
ciel
dor
dign
dain
dill
dunk
daring
dicing
dhl
ee
ep
eying
ecl
econ
echo
fus
fare
fiction
gan
gag
gren
gonea
gord
gutting
ht
hooking
hunk
hopes
ib
ikea
iphones
jon
jell
ky
kith
kkk
lf
ler
lor
lving
moo
mellow
mna
molding
none
nyc
niss
nug
nuc
nacks
oas
oils
omin
pp
pt
piling
pda
rut
rainst
sas
sic
sant
sent
sacks
tass
till
tiew
tamp
tested
tweed
udd
uha
vo
vet
vag
wink
winking
wise
yout
yello
zig
zips
##lunch
##lifts
##aa
##ax
##cru
##cycle
##cons
##cano
##iar
##iere
##iest
##iated
##iary
##ivea
##iethe
##ew
##eple
##eous
##rer
##rigerator
##ost
##odes
##uy
##uel
##ules
##uilding
##pin
##paper
##pples
##piles
##ployees
##middle
##sity
##sbee
##tv
##tic
##tign
##tily
##kach
##kateboarders
##vage
##got
##gri
##gically
##fes
##fry
##furn
##fuzzy
##flock
##first
##dr
##din
##xual
##hem
##hund
##ym
##yan
##bir
##both
##bert
##bush
##bunk
##zers
##11
##20
##ingle
##itos
##itarian
##erer
##erting
thro
thail
thunder
onman
onstage
##lear
##lesa
##atables
##aru
##aras
inbet
##reeta
##ithe
##roop
##root
##rose
##rota
##rodu
##ender
##alized
##eder
tole
tore
toot
toba
stoo
stum
stap
stup
stilla
stading
staked
stowed
stumps
stabil
stalking
##oma
##omers
##omping
##asm
##only
##owa
##owersa
##cken
##etrain
##etooth
##orsa
##order
##orkers
##chers
managing
##laf
sittiing
##rams
##eland
##oosh
##idating
##ilized
##ilical
whil
whtie
##olk
##roung
##gear
##icature
##icolored
##ealed
bubbling
skitwo
##items
pees
pecan
pecul
peopl
trap
##ebaseball
##ebirds
##ebroccoli
peoplesome
peopleyoung
##urs
##xtap
shi
shy
shock
sheds
shacks
whitean
whitecap
itd
itit
iton
itfood
itflowers
itplates
ittoilet
##nthis
rover
rocker
roger
roaster
##assy
##nds
plows
##ilent
##log
tabled
tablewoman
tableblack
tableyoung
tablefood
tablekitchen
tablefresh
tablebowl
chro
chilled
chars
chose
chief
chomping
streetstreet
laure
lacks
begs
beersa
beasts
bewild
frost
fie
fiber
##oodles
boa
boasts
parfa
parcel
parrota
toppled
##see
##section
##select
##ady
##adena
catthe
##andex
upgra
upthree
pimp
pikach
flus
flier
carting
carring
carsthere
caricature
dogpeople
outboard
##ngth
fielded
fieldsa
fieldwoman
fieldfive
fieldsomeone
fieldchildren
fieldsheep
snowed
snowpl
snowcap
walsk
wallets
cloves
trainyard
hissing
frontier
grasp
busseveral
busthis
bask
##rowave
##eezers
signsthere
signstreet
signifying
##aine
##ainting
##sto
##stall
##stera
##stud
roomy
roomful
roomfour
roomwoman
roomsomeone
kitestwo
kitties
blust
blower
grassone
grassesa
grasshop
reds
phras
platefour
platecloseup
bye
bythere
bythree
watered
watergroup
wateryoung
waterfive
waterboats
waterhole
##enth
loosing
bathr
bathro
bathmat
surfera
##phen
##phab
##phazard
bedman
beddog
bedshe
buildinglooking
baseballan
baseballthere
##dsome
severed
##ptile
sucker
##zzles
##zzling
forb
forgot
heran
herthere
herons
herring
coors
cocked
coasting
pizzal
##thre
##thday
##though
kitchenfour
kitchenware
skateboardan
skateboardera
skateboardpeople
skateboardstwo
backround
backboard
backback
mottled
woodsthree
greenwich
lives
lively
poeple
parkedan
parkedtwo
pizzapizza
othermany
skiff
skiboard
motorboats
##iece
##iegated
##iman
##imes
##imidating
##gethree
##gethis
overnight
beachside
beachsmall
beachgoers
eatables
##iletwo
clocked
toiletthis
pict
desper
destru
elephantpeople
elephantsthe
caus
cavea
##emultiple
##employees
congress
waiving
wafer
ballhe
ballgirls
compris
compare
compiled
computing
picturethree
citythree
gamemany
umbella
umbilical
disgu
motorcross
motorcade
motorcyclers
alla
alpac
alphab
benchseveral
towa
slows
motorcyclethere
motorcyclethree
windsail
intel
intwo
intact
intimidating
##shad
##shelves
##uma
windowsthis
glassthere
grabb
opa
opport
boater
boatthere
frisbethe
aroundsome
browning
brownstone
##une
##unity
##unction
scoo
scree
lightthere
lightcars
lighthous
lighthouses
trend
treeblack
handc
handsthree
taup
littel
dela
deers
wallman
wallfour
rapt
raven
ravine
vege
spick
spitting
spandex
truckthere
swell
swining
swerving
reed
reub
reptile
floorm
floormany
frisbeefour
colog
surfboardthere
##ggs
bowed
covereda
counterseveral
dick
umbrellaadult
treesome
treesfour
treescows
##eater
celloph
suitea
suitsa
bananatwo
banannas
cler
offshore
courtmale
courtfemale
courtesy
skydi
skythis
skyward
skyteam
##apple
contorted
contorts
bowlan
treegiraffes
##ups
max
showers
couchthree
togetherman
togetherthis
##quer
##quare
##quila
##quently
backgroundmany
backgroundview
backgroundstreet
backgroundcows
drivea
teea
teething
tequila
soy
soggy
skisthe
kitean
##ubway
birdstwo
studded
leveled
gos
oceanseveral
##angled
lust
hydrange
traffictwo
trafficsome
midway
midday
##kethe
passion
racketthere
floorpeople
counterthree
refuse
wielding
##ethese
anotheran
dirtan
sidewalkpeople
mountainss
mountainseveral
mountainsthree
animalan
standthere
flowersthere
planepeople
babe
saab
towerpeople
fruitan
fruitthere
bros
broiled
broiler
horsesthree
alonga
imposed
daymany
groundseveral
groundthis
groundsome
headthere
headless
headgear
mob
mode
fencefour
fencemany
fencewoman
grazed
##blea
##pared
hangeda
snowboardtwo
snowboardthere
snowboardstwo
fail
wavepeople
carscars
fez
feces
slopethere
slopethis
slopeseveral
dressy
dressings
unst
unman
unfro
drilling
##ipse
hating
corda
corpse
themes
crosswalks
sunk
sunhat
loan
arbor
argu
##essy
##essert
worshi
broccolit
knelling
luggagepeople
emits
emper
winepeople
keysa
colorfula
telegraph
bicycler
wiian
pasty
pasties
leaks
herda
poleseveral
racetwo
serrated
bagan
bagpip
perple
perusing
highlighting
umbrellasome
watchingtwo
whoa
cursive
marriage
barry
kitesome
trickthe
smilingan
bottlesthe
soccersome
cornertwo
cornerthere
soccerthe
airportpeople
tvseveral
settwo
settled
attired
buildingspeople
buildingsseveral
buildingsmany
applean
pats
platesthree
monsters
monica
nights
nightthree
foreclosure
variously
##psy
itemstwo
##acia
##acado
bookthere
bookcasea
homean
liners
linethe
riverthree
riverboats
bananaan
railyard
coffeemaker
canals
##clocks
traysa
traytwo
restaurantseveral
restaurantthis
heir
dished
dishestwo
rowed
playerstwo
runwaythree
runwayseveral
runwayplane
balled
toystwo
result
respect
showering
storean
storemany
purposed
rainthere
rainpeople
rainfore
rainco
mouthed
rampsa
screenshot
##oco
seater
rockets
rockef
nos
nois
noise
panc
panned
tubing
tubea
amd
amused
amoco
handsomeone
haight
haphazard
##weet
##clown
wayland
wayairplanes
jacketsa
clothe
zoosome
enclosureseveral
enclosurefour
postsa
postthe
hairdo
forestthe
basketsa
baskettwo
breadtwo
mealsa
##ected
salutes
knifean
multile
furnace
dockthe
branchan
blanketed
shopthere
shopper
cabinetsan
cabinetskitchen
lakean
command
commute
commodes
fremont
obstruction
hoisting
cookers
markettwo
marketthe
marketseveral
shaven
seena
metered
metertwo
assignment
squating
pensa
penseveral
crested
crevice
trailthe
stacka
##rican
shortcake
subt
steve
stealing
stevens
notea
notices
surfboardsseveral
surfboardsurfer
yardthere
distressed
distracted
frizz
tiestwo
tiethis
##ugly
wildflower
wetland
entre
enticing
entoura
entangled
doughnutsthe
garban
gargo
applies
familya
concealed
applianc
seagul
trainsome
townhouses
engineers
heaven
frisbeeseveral
pedist
duel
ducat
tanding
tanning
casean
equal
equally
tarmack
boardsomeone
rackthe
tarmacs
seeking
phonesome
phonesfour
cec
cabinetthe
appliancesthe
pasadena
plantsan
feedinga
fishbowl
teamsa
earing
frig
footboard
footbridge
fireplaces
centeran
pulp
concretean
backpacksa
writting
bagspeople
nearbyan
nearbytwo
fanned
surfacepeople
quizz
creamed
##scissors
woodsy
offices
officetwo
juggles
juxtap
sinksmall
speck
smoker
ledgethe
flagstone
roosts
turrets
appearance
gardenthe
hotdogsa
poolside
##ensity
##ensation
teresa
ceilingthe
clawing
##apeople
shoestwo
##ios
##nicely
napa
toddlera
##goats
crunch
modular
roofing
roofan
tweezers
circusa
attemping
arrangeda
figuring
racehorse
pondan
transform
mixera
portraying
carrotsthe
cakeseveral
mustached
glued
netted
sweatpants
practical
floorsome
floorsmall
speedboats
cased
storing
storied
sporta
beards
shouting
peela
peepee
warplane
vision
visual
visited
##new
grillhot
cornfield
sprinklers
sync
classa
supposed
##coffee
##lazoned
waterstwo
watersurfer
spotsa
medall
presum
presence
streetsign
lifttwo
##plan
writinga
flights
americans
pavementtwo
condensation
depress
paddlesa
paddleboarding
groomer
rears
climbed
semit
courses
courcha
ridersa
termite
wetsuita
ducksa
butternut
tentsa
carafe
##moke
onlya
approachinga
balancea
stole
waited
##athese
##athlete
charged
charlie
simmering
tongues
##omotive
supplied
surroundingsa
lama
handlesa
##bikers
petal
petite
petaled
roadwaya
porcup
porcel
toolbox
bellied
cheesethe
shoeless
shallows
humped
delicous
stoolsa
parasurfer
parasurfing
muslim
groves
patcha
daw
users
##abited
autism
countersome
labs
naan
stoplighta
gatheringa
benta
coachtwo
bulla
bulging
bulky
evenly
shadowsa
firsta
jarsa
potatoa
joins
confident
enjoyment
steeplea
mobilea
surfacethere
surfacethree
##seagulls
##why
bitch
bitea
##roturf
dotting
entertainer
craning
owned
radar
exhibittwo
dumpling
secure
seconds
stirrer
stirfry
matters
taxiway
customera
##anoid
fillet
gazinga
neighboring
grandpa
foiltwo
warmed
canopied
elphant
lemonsa
feda
federer
idles
timetwo
downtowna
moms
shouldn
emblazoned
brackets
cupthere
guarded
savana
camerab
camerathis
griff
savannaa
homose
homesa
fingerling
kegs
festoon
villagers
##eboats
projectora
canoeing
detached
valleys
demo
swept
googles
stemsa
umbrellal
kissa
minion
minim
minced
coasters
coastlinea
whitethe
knifethe
messes
blurs
splitting
facetwo
tablecloths
costumesa
airborn
miami
reclined
cloudsthe
languagea
decid
decides
kneeled
departs
sharpie
compartmentalized
keepers
savannahtwo
##trains
rotted
messagea
asphal
logoa
otter
solider
attractively
kettlea
impending
majority
payment
lobbya
forcefully
ropesa
cratesa
foliagea
emerald
chopsticksa
outsidelarge
sleepa
sleepily
antelop
captioned
expressway
gallons
pajama
claima
edin
editing
##containers
sanitary
sanwich
plugging
yorkshire
##marks
letteringa
heelsa
pantwo
##ornate
kingfisher
notesa
juicing
juiced
leader
cocktails
tromb
queens
flew
defense
bloomed
hummingbirds
victim
temp
assembles
domes
signg
beddinga
socksa
overshad
underst
undressed
symbola
completes
bideta
shedding
tripa
pontoons
196
194
1900
dada
hunching
smileya
dormitory
buffalos
morgan
rapidsa
cordsa
latter
missile
brands
reference
fillings
mystery
octagonal
randy
sights
moonlight
hooka
##delicious
awninga
accompanying
##agetwo
accidenta
todaya
removeda
conducting
safaria
escalators
annual
flanking
participant
slawa
10th
treys
orchest
facilitya
##pictures
foundation
buys
broccolip
broccolisome
residences
paperworka
technical
generator
generations
functioning
docksa
sunshinea
purchasea
variegated
##court
patrols
hammera
rigs
overgrowth
contestants
ornamentsa
##motorcyclist
jacked
ventil
searches
sparkly
##bicyclists
placethe
##ological
hedgea
francea
paradetwo
captivitya
##clear
stovesome
spaceship
huga
turtles
receptiona
totes
grasa
knocking
hoopa
11th
crooks
stapled
establishments
astrona
astroturf
choking
asiaa
drumsa
drummer
pantrya
congratulate
sodasa
sighn
unbrellas
whippet
swirling
swirls
preserved
awarded
ashtray
merchants
dream
junked
##ucky
seperating
dealer
alloweda
involves
phototh
attractiona
hurdlea
scaffold
salesman
experience
fridgethere
surfacesome
puddinga
##crowds
suitcasetwo
parachutethe
seniors
##polar
grafiti
addressing
armchairs
stovetwo
esca
mariners
blossoming
berth
error
romaine
##vegetable
tapea
spikes
insidetwo
notepads
templea
brisk
weaves
composting
explain
didn
hooding
mamm
seduct
##eroad
unpacking
hounds
joyfully
utilities
utilitarian
2010
tests
##rosity
sequential
herbsa
speared
feilda
crockery
rollerblades
events
evidently
sheeptwo
microwavethere
alex
false
switches
dominates
glad
ruffle
stabbing
suggesting
explores
oregon
ollies
limits
reserve
reservo
bulbous
thoughtful
snowshoe
phillies
phillips
scroll
scrolls
gushes
dawna
buldinga
wreckage
grafittia
fruity
frustr
sickly
traverses
laddera
boombox
##vehicle
suckles
teacups
lettuces
calzones
sanitizers
paraglider
irises
inserting
beachsurfer
scanning
harnessa
trinket
appreciation
dwarfs
nectarine
nectarines
violent
##stennis
motorcylces
sparrows
predomin
prohibited
breathing
expertly
belongingsa
masted
yankee
##bottles
refreshment
entrancing
dandelions
oozing
hunter
paddington
priority
william
henry
puree
accepts
scramble
scrambles
communicate
communicating
suggests
vitamins
cultiv
fiddling
geek
kabobs
tumble
weeken
##pastries
swiping
1971
wwii
knacksa
curiosity
firsbe
colleague
sixteen
associated
bellowing
mrs
nathan
anothersome
##chopped
manuever
overlaid
umbreall
embellish
embellished
germanya
collapsed
oyster
oysters
preening
shingled
snakes
meanders
meandering
screensaver
portrays
krisp
weapon
bubbly
rickety
skatebaord
gravelly
cleaver
sometimes
expectantly
freestanding
tarmacthe
glistening
primary
strategically
boutonniere
negoti
##baskets
israeli
encompassing
azure
cpu
##country
##mirror
thrift
inquisitively
##reflection
chamber
condos
colourful
makera
passerby
restraunt
doorstep
mussels
distributing
fireplacethe
fingertips
europea
gladiator
incorporated
bachel
cedar
gleefully
anxiously
constructing
applauding
kneading
cleverly
monstrosity
somersault
seatbelt
hairstyle
fringe
bindings
enterprise
shamrock
luther
lentils
nazi
##customers
whiile
buisness
snarling
kitcehn
sideburns
backhoe
motivational
picnicking
trundle
trespassing
biathlon
camofla
margarita
agricultural
hexagonal
newscast
eyebrows
ninja
buttocks
framethe
shoestring
weenies
autumna
digitally
nonchalantly
financial
virgini
dynamite
fourteen
triumphantly
municipal
fettuccine
oeuvres
787
bologna
cessna
dainty
ibm
leroy
nissan
nugget
nuclear
oasis
tampa
uhaul
youtube
##hundreds
thailand
inbetween
stooges
stupid
peculiar
bewildered
parfait
snowcapped
blustery
grasshopper
phrases
opportunity
taupe
spicket
reuben
cologne
cellophane
unmanned
unfrosted
worshiping
rainforest
raincoats
rockefeller
haphazardly
entourage
garbanzo
ducati
porcupine
homosexual
understand
seductively
08
05
39
34
41
4th
59
52
60
65th
72
92
94
90th
95th
ala
awe
acts
bt
bile
bigh
bage
bie
billa
bount
bilingual
cb
cate
clack
classes
coney
dt
dal
dea
dane
drown
dart
dates
dork
doored
dres
dict
drows
ew
eru
eras
ell
evid
eco
erot
elders
eerie
fee
frant
fins
fund
fuse
gey
hs
hing
hue
hust
hens
ig
iin
iam
iphonea
ihop
jc
jr
jig
jim
jale
kk
kan
kent
kales
kiel
kichen
ln
lop
lill
lum
lend
lense
lashes
mea
ment
mine
malf
mits
mering
molded
nas
nir
nations
oc
og
ole
oom
overse
ointment
pis
pidge
poms
rite
reb
rate
rung
sis
sard
sce
soot
sends
sighting
silent
tay
tilled
tame
tidea
tina
tilling
trous
uka
udder
vood
vant
veld
vul
vain
vents
vows
vinea
voting
votive
wer
wol
willed
wart
wits
wanted
winks
wads
yong
zag
zonea
zipped
##lan
##lla
##lounge
##like
##lifier
##aurant
##accia
##cro
##cur
##cri
##cating
##cely
##cooter
##ius
##ietwo
##iental
##iately
##ez
##ext
##equ
##evil
##eenth
##rs
##rand
##rider
##rgas
##oh
##oss
##oved
##ograph
##odied
##ucks
##useum
##uctive
##pera
##press
##pour
##pick
##prop
##public
##painting
##mous
##mats
##mend
##mixed
##mertime
##messy
##snowboarder
##spectators
##silver
##td
##tree
##tired
##tiled
##troop
##near
##nine
##noodles
##kc
##kit
##kan
##kien
##va
##vious
##via
##vously
##grown
##gans
##gus
##gold
##fers
##flo
##fill
##fork
##flakes
##frican
##drying
##dust
##duce
##dist
##dults
##dishes
##win
##woo
##wher
##wrapped
##hen
##hoo
##hats
##hows
##hog
##yo
##year
##bong
##bber
##belly
##bald
##broc
##jumb
##jara
##zilla
##inn
##inf
##insa
##inely
##ingroup
##itz
##itled
##itation
##itles
##itches
##itaries
##erea
##erran
##ervice
##anced
##anos
##ananas
##annas
tha
tht
thong
thier
throng
thirds
onethe
onmany
onethere
online
onbrown
##left
##lems
##att
##arch
inan
inch
inla
inward
##resting
##rope
##roded
##ennis
##encing
##encer
##alp
##alone
##ede
toad
tost
tony
tobo
tolet
stn
stwo
stilet
strick
stub
stonea
staking
staging
stitting
##omical
##asking
##asma
##etto
isles
##oral
##oration
##orious
##orns
##oriental
##chi
##chic
##chur
##chtwo
##chia
##chila
##chees
##oud
##outer
##isty
manthe
manning
manned
##lap
##lake
##lamb
sited
sititng
##ramp
##raised
##eler
##idethe
##idden
##illo
neoc
nemo
##otta
whited
whacked
##erset
##olina
stando
sittingon
##gey
areathese
##uth
##utre
##utical
##icab
##icture
atlas
burt
skins
peice
peera
pegs
pebb
pebble
peole
pebbled
traces
trader
tradition
##ebee
##ebase
##ebaby
##ebananas
##urers
##urts
##uries
##urbed
##urposed
woma
##xtwo
shan
shir
sheath
shards
##verine
##verts
itp
itt
itf
itb
itmen
itcat
itfive
itcars
ithorses
itplate
itblue
itkitchen
ittraffic
itdifferent
itstop
itliving
##nts
##assome
##nda
plae
plaz
plo
hollanda
##loc
##load
tableon
tablelarge
tablethese
tablecloseup
tablebroccoli
tablevegetables
strength
chand
chins
chowing
chatea
chalet
doe
dozing
##hero
streetold
streetwoman
streetboy
streetmen
streetperson
streetvarious
streetsomeone
streetmultiple
streetguy
streetthese
streetblue
streetbus
streetpolice
beating
frock
fronds
fiery
fivea
fielding
bock
boss
boast
bobble
boiler
bohem
paring
param
parted
paraded
topmany
topblack
toppers
topiary
grouo
##selephants
smacked
someplace
personan
persontwo
batroom
battwo
batstwo
##anter
##anthe
##adala
##amotive
##rian
gird
downan
downpour
catan
catstwo
##anders
upthere
upseveral
upraised
pilaf
fli
flare
flutter
flute
fluted
##ioned
riot
##rung
##rugated
carr
carthree
carsthree
carouse
carolina
dogsthe
dogssome
outtwo
outthere
fieldbrown
fieldboys
fieldcattle
fieldcow
fieldgroups
snowbo
snowwoman
snowgroup
snowsomeone
snowbank
tens
walmart
cloak
trainthree
##igning
frontan
frontthere
parkway
parkland
parksome
parkfour
parkperson
parkskateboarder
tennisthere
tennisthree
tennisseveral
gry
blackbird
buster
busthree
basetwo
basethe
bashed
signific
signalling
##aints
##ellers
##ellini
##stove
##steddy
##standing
##strange
roomsa
roomsome
roomliving
##plend
##pless
kita
blimp
airway
airman
airseveral
airsome
airfour
airbus
grassless
grassfive
grasssmall
redtwo
sideview
phe
pho
phase
phases
plateone
plateful
plateplate
platepizza
platemeat
##ightened
waterboard
waterwhite
waterelephants
surfbo
##sses
##ssun
##sscissors
##phard
##phole
bedpeople
bedblack
bedtime
buildingfour
buildingvery
buildingpicture
buildingstop
##inky
baseballthree
baseballthis
seala
bathroompeople
suff
sunthree
suede
##zzly
forages
foodstwo
foodfour
foodwoman
foodyoung
foodfood
foodwomen
coc
coil
cocks
horton
pizzaseveral
pizzathis
##ears
kitche
kitchenman
kitchenpeople
kitchenwoman
kitchensmall
kitchenkitchen
skateboardyoung
backman
backless
backflip
backcountry
greenfield
greenville
liv
livery
liked
poins
boyfriend
othermultiple
skian
skied
skims
skiiesa
lookingthe
##imi
overta
beachboy
beachgroup
beachperson
beachkites
beachbeach
eatthe
eatentwo
eatenthere
clockthis
clocklarge
bena
toilettwo
bearsthere
coupled
desig
elephantthere
elephantman
elephantthis
##aching
caped
caval
girlsa
roadgroup
roadwork
conn
coned
conestwo
waveland
baller
ballboy
ballchildren
ballmale
ballgame
ballbatter
compilation
weara
picturepeople
picturestwo
citys
cityscap
gamessome
gameboy
mousethere
disple
disaster
distingu
boardera
boardpeople
boardseveral
boardthis
boardwoman
boardsthere
alum
alighting
alerts
alright
alerting
although
benchsome
towersa
slated
slung
slipped
motorcycleblack
motorcyclesthree
winda
windown
windso
laptopthis
laptopyoung
laptopcat
##ldersa
##oret
childan
asain
##shirtless
##shots
sandles
sandthere
sandiw
##umental
glassthree
airperson
graves
gravest
theirs
opera
areaone
areagroup
gamechildren
frisk
frisco
boatyard
chairpeople
chairthree
chairthis
chairsthere
chairlifts
browna
eatingseveral
##uniform
##unset
yellowed
olda
olden
stopan
scraw
scient
scaling
scoring
scalp
lightsthere
lightssome
treel
treethis
treelarge
tremend
handsh
handthis
handyoung
tales
talent
computerized
horseman
horsepeople
horsewoman
litte
photoan
photoed
desklaptop
underbelly
dece
devel
delapidated
wallpeople
walllarge
giraffean
giraffees
##asta
coverlet
raging
raquets
openings
spit
spam
spook
spart
sphere
spork
spills
spencer
##estuffed
##esteak
cakepeople
swed
firework
relection
surfboardsthe
lotpeople
lotseveral
lotthis
outsidepeople
outsidewoman
##ggan
bungee
umbrellaperson
eacha
treesgiraffes
##iched
##iches
suitable
banans
behinds
clue
clash
clark
clerk
offan
offset
offloaded
itsix
courtpeople
skygroup
skysmall
skylinea
##apes
abd
abed
abut
abuilding
bowlseveral
treepeople
treegiraffe
aplate
apiece
showboat
fench
##eadults
couchs
couchblack
##ctional
##quea
##quart
##ify
##ifer
##ifice
##ifully
sandwichtwo
buncha
runn
backgroundlarge
drip
soem
soak
viewthe
platet
plateseveral
skisthis
skissome
skisfour
kiteyoung
shirtan
sheepman
preven
precision
##agram
oceand
birdfe
leot
lect
##rylic
oceanperson
hydran
##lesome
hydrantan
traffican
trafficthe
midw
midsection
swingsa
##keta
##doors
##orman
racketsome
racketwoman
floorstwo
displaysome
teddya
counterthis
vegetabless
vegetablesthere
refection
wiif
wiki
mirrorman
mirrorwoman
orangean
dirtbikes
mountainpeople
mountainfour
animaltwo
standtwo
standalone
cheery
metter
baboon
sak
sake
saving
fruittwo
fruitsthe
fruitfruit
tracksseveral
tracksyellow
horsesome
horsesthe
hillsome
hillgroup
imper
imperson
brind
brinks
dayd
dayfour
guadala
headstwo
headwoman
headstone
headpiece
mover
movers
##velers
grassyoung
snowboardthe
carsome
carspeople
carsseveral
vegetablesseveral
restrain
restrict
restoration
##rency
stationseveral
stationsome
stationblue
adverts
middlethere
elephantsome
bananaspeople
unh
unsh
unnat
cupstwo
enra
enactors
enchila
proa
prong
promen
##ipes
##menta
hattwo
corked
corrugated
boxy
##pepper
acrylic
sunan
sunpeople
sunbea
argy
longboarder
##essomeone
worth
grazingthree
knots
knaps
skiingthe
luggagean
broccolian
ems
emac
doorthere
doorthis
##elfie
coloran
colorless
colorado
glassespeople
bicyclers
cleveland
slopeperson
rememb
reminds
leaved
leapa
polethis
polestwo
polesthe
camerawoman
papaya
tracking
trackss
trackred
trackssome
tracktrain
serveral
bagsthe
umbrellasman
umbrellasthis
wholesome
curlers
currency
marion
marines
marches
pottwo
potties
barnthe
barntwo
kitesthe
kitesurfer
televisionthree
brea
smilingthree
bottlethe
soccerseveral
dinners
videota
tvthere
tvpeople
dogsome
dogsomeone
boatspeople
remotethe
remotethere
buildingsmall
applesthe
alliance
##umbent
##umbrellas
painter
platesthere
monaster
monumental
nightthere
nightpeople
nightseveral
mega
jetblue
paperthree
paperthis
somerset
##acea
##acies
bookends
booksthere
watchers
meatsa
meatthis
homem
lineseveral
himthere
himpeople
himthis
riverbed
polishing
coffeean
pullman
trayseveral
somethingsome
restaurantthree
restaurantwoman
##issipp
drinkthere
orb
oral
clouda
dishwash
rowan
rowsa
plantthe
plantsthere
##alfour
muzzled
##akers
ballet
baloons
brushthere
results
doughy
showeran
##grapes
intersects
rampman
itemsan
itemsvarious
screensome
intersectioncars
##ocal
seatan
seatthe
rockan
rockssome
halfan
noddles
paned
panning
tubular
aman
handsan
##rawn
boota
haven
##irectional
lookin
waythere
silverwear
##teh
shephard
zoogiraffes
enclosuregiraffes
forests
betweena
mealan
brighten
salv
salona
armstwo
outdoorsthe
outdoorsthree
candied
##oldiers
##roni
stared
starch
status
dockan
branchthere
blanketan
attaches
orangesan
striding
shopan
trips
pillowstwo
pillowsthe
teapots
wavesthere
wavesthree
inclinea
chocolat
monitorthere
commander
clearance
hoe
hoding
hods
hosting
gibs
##spair
##spizza
stonework
flowerbed
marketan
marketsome
lushly
flailing
workera
workman
workbook
workplace
worktable
tablesan
tablesandwich
meterthe
donutthe
donutsthere
shotgun
squirts
penan
penne
crev
creations
bushan
trailpeople
edgean
tommy
bikesome
teethan
teethtwo
platformthere
pathpeople
stephen
notifying
toppingstwo
surfboardspeople
yardthree
yardseveral
paces
drawbridge
timber
tiolet
tiaras
fame
rollsa
rollthe
wildan
wildthe
wildwood
vanities
wiresthe
lapels
mountainsan
computersomeone
entitled
##bob
##boro
##cading
garish
garages
garments
catchertwo
controllerthe
cookingtwo
necking
vasesthe
drya
drys
dryers
drywall
pizzasome
pizzasomeone
concern
concourse
landthere
landline
seabird
seawall
otherstwo
ended
benchespeople
frisbeedog
gearing
peddle
curbed
curbthere
equi
##tained
boardskateboarder
laptopsan
trucksome
flatware
sofatwo
seek
phonesan
phonesmall
##ushroom
cabinetsthere
applianceskitchen
shoesan
shoesthe
pasenger
placemats
winethere
winners
winchester
curtainan
pasturethere
pasturethree
pastureseveral
fishes
frito
fritt
frightened
breaka
spoonthe
spoonthere
pointer
onionsthe
footrest
matchan
##pointed
schoolhouse
schoolboys
centerpieces
backpacker
backpackers
bagsan
surfaceperson
locust
locale
locamotive
churning
churches
creamer
creaman
feetthe
planesome
skateboardsomeone
suitcasespeople
delia
delux
drinksan
##decorated
bushesthree
haythree
staining
stallion
stallthe
blob
surfersa
formica
##master
lettered
christmasa
rugtwo
harsh
rooting
roosting
trashed
##ractive
highways
hardcover
retired
machet
burst
burried
blenderthe
teriy
##fecting
shadetwo
crazing
cradling
crayon
indu
indig
icecre
clap
holdersa
doesnt
approxim
acceler
baorda
freeways
pointinga
desertsa
propelled
eventseveral
##uitcases
advertisment
twice
twitter
discolored
sprite
interru
interlocked
snowboardinga
pondthree
lettuc
carrotthe
deckthe
##petizing
glorious
beverag
plaintwo
salem
salethere
steama
steamy
steamer
shipped
smartly
smartphonea
capabil
speeda
speedy
casks
cascade
cascading
foregroundtwo
sunsettwo
sunsetthe
racketsan
sheeting
actiona
miser
##kered
peephole
toasts
mushrooma
##iba
##ibious
warrior
visa
tomatoe
candlesthe
candlelit
cornflakes
drained
synch
shadean
pierthe
##cod
##ringes
headshot
lidthe
speaka
fury
furled
watersmall
watersurfers
watersheep
##ierea
moundtwo
moundthe
jeky
streetsigns
sculpting
##plistic
milked
americ
pavementthe
paddleboard
calories
pansies
semia
cours
legally
legumes
branchesthe
sailinga
termin
##actment
##meda
practicea
##model
##flowersa
mascar
masai
frieda
gasoline
pinn
pints
conser
consulting
painters
freezing
simplistic
decorationsan
tonguea
neatlya
stadiumthe
surroundinga
housethis
relaxinga
florist
lampthe
lamptwo
fasten
fastest
fastening
peters
howling
porter
croup
cheesey
cheesetwo
shoeing
separation
separately
collard
guitarist
sectiona
sectionsa
aware
crocod
software
softballa
humor
humping
steeply
focusa
focaccia
coveringa
copse
ballsmall
cools
coolera
slopesthe
slopeskiers
slopeskier
planting
planning
planethere
planethree
dazzling
autos
countersthe
tufts
tudor
muffs
muffina
tabe
motorbikea
nautical
expand
mirrorsmall
republic
repurposed
benthe
balloona
observer
cargoa
bulk
steele
holderthe
jarred
saunt
liquids
loungers
##vana
laughingtwo
joking
config
confines
confront
crater
openinga
hillskiers
blowup
blowdryer
blowdrying
bitter
denoting
denotes
bunkbeds
dotsa
volcano
entertains
cranea
cereals
forwards
dumpstera
securing
secures
secret
collara
backswing
frisbeesseveral
avacado
feedertwo
systemtwo
maine
filters
servic
servicemen
audienc
paddled
grandson
grandparents
##striped
warmth
powers
advertisinga
straighten
tractora
statuesa
primed
fathera
typinga
dustb
##torial
##from
naturalistic
resorttwo
windsor
bussesa
massage
movements
sidethis
sideseveral
hungrily
castlea
emblems
brac
brad
brain
braking
producea
bayan
instruct
readers
stepsthe
backyards
pointa
floodway
cafean
camerayoung
circlesa
taga
recent
recumbent
slapping
freighter
freightliner
melt
melbour
oriented
namea
insulated
stormtroop
mopeda
volleyballa
figuresa
fansbaseball
hipa
hippie
hippos
bluetwo
bluetooth
festiv
sneaking
muffinsa
regions
instant
goalkeeper
grinch
soapa
beveragesa
sheltered
scissorstwo
scissorsthe
scissorssome
tusksa
fattening
##iflower
charactersa
daniels
pedestala
approachesa
stemware
waterwaya
convection
excess
exclam
conversationa
conversations
willows
phoneb
phoneseveral
phoneblack
peanutsa
umbrells
umbrellast
spaced
miniture
minnesota
coasta
coasts
cucumbersa
tightrope
pensively
buttona
buttoned
strides
##ificate
seasonal
bridgethere
printa
printers
badger
conferencea
helicoptera
limbtwo
cella
cello
shadesa
garnishing
mike
##meted
recline
texta
bording
creeka
cloudsthere
decide
decades
decanter
eagles
macro
maciel
backdro
japana
keepera
hangaran
worlda
babiesa
pathwaya
rotary
castro
billboarda
otters
solution
touristsa
attracted
onesie
impaled
specials
specialized
distances
pocketknife
saucethere
satur
saturn
superhero
ostricha
suvs
measures
gourd
carelessly
##timea
outsidethis
dipa
unita
craftsa
##horn
manequ
piesa
tortellini
diskthe
claims
claiming
claimed
policemana
summera
summertime
aparta
edward
edging
edifice
oxford
lodgea
siren
remodeledan
pigeonsa
treatment
panthere
feroc
reality
coffeetwo
##ettia
squaresa
junkyard
scraper
scrapper
handbaga
cott
affair
flecked
retrievers
slideshow
defending
areasome
pipesa
##posters
cassette
assemble
domic
sweatshirts
drug
drugs
##collection
clubs
embraces
rabbita
mannequina
##nowboarders
mantlea
broadc
rampskateboarder
champagnea
shedthe
squasha
consumeda
19th
1960
drove
dads
tethera
cordoned
descript
##ducks
aboves
airfielda
labeleda
brows
rank
airplanetwo
perfume
converge
latch
parasailor
mississipp
shreds
finest
finance
occupant
millsa
walleta
apparent
fixturesthe
nestles
changea
funtwo
hurrying
hurric
hurls
mystic
nik
obamaa
camerasa
wrestlers
carnivala
studentsa
##agethere
##cotta
graduating
eartha
randomly
gadgetsa
iceber
##potatoes
westmark
stonesa
chipsthe
screws
screenthere
florescent
sandwhicha
participates
100
pacman
buya
residue
residents
kissed
seedsa
supporters
jewels
communal
stylist
sheltera
generators
shellfish
tabletopa
lugga
patients
deliveries
escalatora
gaily
gingerly
sunshades
springtime
archwaya
octopuses
varies
varnished
spirits
enthused
hammertime
clawfoot
joba
rva
soundboard
snapple
contesta
neutrals
##railer
stairwaya
ranchers
ceremonya
wrista
linensa
enthusiasm
mighty
##ports
mastera
paradise
sidewalksa
sidewalksome
substances
##clement
plungers
dumps
dumpy
fencinga
terraced
terracotta
total
interstatea
languagesa
ratty
rattan
sellers
showrooma
stylishly
concentration
veranda
quartet
quartersa
jewelery
stagg
shacka
highchaira
englanda
obscuring
twentieth
headbands
##cups
tolkien
maintains
maintaining
lakethree
congratulation
187
1800
##hotdog
projecting
greeted
greetings
novels
tackled
unbrella
knotty
boneless
dyrgas
normally
tricycles
usaf
spanisha
rulers
truth
zippers
partitioned
scooped
drew
etching
licence
##wedding
banksa
encirc
anticipates
navigation
gauge
bombs
junior
conveniently
sprawls
demolition
renovationa
cosplay
attractions
hawaii
versions
experim
fridgetwo
clydesdales
cylce
nerdy
cobalt
hostess
franciscoa
##policemen
sittting
sittng
##veloped
halfpipea
armchaira
quarry
quartered
stovethis
puncher
##giant
antennas
manuals
eachothera
cdsa
mileage
romp
romping
slivers
iceboxa
announce
announces
weaved
##ference
winerya
cardinals
arrivesa
satellites
mammal
seductive
songbird
pollution
describea
utilizes
trenchcoat
splot
splatters
africaa
aeroplanes
##ancesa
plumber
spotlessly
strands
broccolithis
fouling
ukule
##benches
##laptops
motifa
spongebob
agoa
judging
accordian
theatrea
cooled
buddies
signposts
backwardsa
modestly
troopers
dominos
hedgesa
pyramids
glac
##interested
peopler
richmond
showcased
sawdust
detergent
congregated
loud
snooz
tenders
contrasts
fourths
statuethe
statuette
unloads
luggagesa
ghostly
basset
muti
muted
##homemade
plym
smirking
survey
coordinated
disembodied
albino
trumpets
scrolled
buldings
measurements
honking
mimic
##ophone
##olorful
backsplasha
handwriting
contentsa
speakera
humorously
sanitized
ricotta
yahoo
beachsurf
clasps
telephonesa
particularly
quantities
##scription
kimonos
ariel
amplifier
gelat
hideous
sponsors
predator
vacuuming
representative
contrasted
aggressive
mildly
wiscons
firehose
birdcages
mosque
restaraunta
promote
settlers
questioning
twirls
relaxeda
stooped
manufacturer
julien
sterilized
trafficked
frowns
treestreet
treestraffic
hunts
hunters
thoroughly
ryan
rinse
handraila
maiden
unicycle
trackstrains
pursues
unclean
barbecuing
fiddles
nudges
pylon
veteran
veterans
winters
##pasta
coupons
someonethe
umberella
umberellas
altoget
##teenagers
distinctive
fanciful
weighing
vicinitya
1970
specifically
##iscent
responding
rollersk
concretetwo
baggie
baggies
cockatiel
rummage
experienced
associates
circa
cribs
lurches
anotherseveral
steadying
steadily
stencil
##chopsticks
chariots
choco
choclate
##statue
overlapping
sandalsa
diversion
advising
unsliced
nineteenth
malaysian
jamaica
rumbles
schedules
wonders
issues
buzzards
pegboard
snails
seventy
elementary
decline
absor
absol
immediately
brilliantly
adapt
respond
portrayed
mediterran
improvement
##individuals
dappled
ghetto
harmon
harmony
ignoring
weapons
##twin
thimble
index
moutains
gravity
bananassome
cleavage
sometime
freestyle
strategy
outsidesome
citycars
boutonnierea
negotiate
jazz
karate
sutic
sullen
tinker
##microwave
##windows
innings
shuffle
##stainless
woodpecker
woodpeckers
disappointed
trudges
trudging
collaborate
collaboration
macaw
referees
emotion
canoea
freesby
twinkies
magician
laboratory
aviator
flexible
2009
luggageseveral
scalloped
occurred
disgusted
migrating
durham
eclairs
##candles
##tesville
shoveled
chirping
snooping
gratified
sudsy
allover
taillights
reenactment
moguls
enhanced
brewers
coffeepot
amphibious
multitasking
engulfed
commemorative
urinates
fingernail
undeveloped
franklin
vegitables
energetic
hitchhiking
ayi
bernard
certificate
cronuts
gutted
joust
pothold
sapling
vignette
##everyone
##helmeted
tombstone
skaeboard
pixelated
traintracks
composition
treadmill
underhanded
passersby
saxophone
restuarant
unleash
unappetizing
unenthused
reminiscent
marlboro
ramekin
fragile
mischievous
warthog
semicircle
charlottesville
tussle
threatening
overseeing
octagon
whispering
astronomical
crisscrossing
zealand
immaculate
smokestack
hippopotamus
eclipse
fuschia
ganache
gordon
rainstorm
udders
##furniture
##dinner
##birthday
throat
tobacco
stapler
##ooshing
chromed
pikachu
flusher
snowplow
comprised
disguised
opaque
trendy
handcuffs
raptor
maxwell
goslings
arguing
bagpipes
perplexed
multilevel
subtitles
quizzical
medallion
presumably
semitrailer
festooned
minimally
deciduous
asphalta
edinburgh
trombone
orchestra
escaping
reservoir
snowshoeing
virginia
alameda
bagela
deaker
evidence
fuselage
igloo
iamge
jalepen
kentucky
meringue
scears
voodoo
veldt
vulcan
wolverine
##cript
##brocolli
##jumbo
toboggan
stiletto
##church
neoclass
burton
pebbly
traditionally
hollandaise
chateau
bohemian
poinsettia
distinguished
aluminium
windsocks
gravestone
##uniformed
tremendous
developing
spooky
##quarters
preventing
impersonators
guadalajara
promenade
##pepperoni
argyle
emaciated
videotaping
monastery
dishwashers
gibson
frittata
deluxe
teriyaki
approximately
capabilities
synchron
jekyll
republican
melbourne
exclamation
mississippi
ukulele
wisconsin
mediterranean
07
14th
26
4h
43
44th
56
6am
600
7th
90
95
ai
ah
aar
aub
aip
aroud
bair
bong
bond
bray
cs
cn
cing
cum
cort
cries
citi
cister
dat
dere
dag
dating
dale
dca
damas
dora
daint
dared
diction
ea
eg
e2
elo
eve
eric
earman
eroded
fow
fis
fel
fade
feath
fats
fount
fasion
gage
gave
gurn
guts
gene
gothere
goup
golds
hl
hin
hir
hoard
hell
hore
hag
hoes
hint
halla
hoola
hwy
ira
ibe
jub
jade
jaw
jester
kal
keb
kand
kru
kem
killed
kans
kos
kern
kod
lol
lure
lun
lists
lumin
lloy
llittle
ltd
mab
mell
mum
mors
meth
mental
mallets
minds
nu
ng
nit
nan
nou
ou
ov
oark
oman
osp
osc
oster
oka
oscar
pk
pd
pst
pent
pors
pus
punches
rc
ron
rome
rach
rend
rica
rinds
sr
ss
sv
sd
sow
sor
sir
sop
sot
sst
seep
sif
sari
sans
sowing
sbs
sila
sissors
santas
tet
tge
tut
trow
teep
turing
tides
tball
ug
v8
vort
vace
vats
vuit
vamp
voy
vocal
wy
wow
wnd
wain
woth
wary
wider
wishing
wifi
yon
yel
yol
yea
zero
##li
##link
##lane
##ller
##lower
##aing
##aad
##akes
##cs
##cn
##cet
##cab
##cage
##cook
##cash
##cool
##cia
##cyclist
##cooks
##cicle
##cula
##cycles
##cene
##cards
##course
##iat
##iou
##iks
##ironic
##ikea
##iago
##eying
##eign
##ept
##eological
##rl
##rr
##rn
##rine
##ration
##rating
##rinted
##ralling
##ob
##oople
##ody
##ovated
##occer
##ocean
##uid
##uine
##uated
##udge
##udes
##uzer
##uenced
##pom
##put
##pri
##pion
##pple
##pily
##pizz
##piring
##may
##mph
##mly
##mult
##mac
##mary
##mits
##mates
##muff
##mature
##math
##museum
##mushroom
##sch
##slee
##surf
##tn
##tz
##tour
##trol
##tents
##tower
##tral
##trio
##nity
##neat
##nips
##kat
##kabo
##vie
##vors
##viting
##vial
##vethere
##vsion
##gom
##gree
##gone
##gum
##gies
##gium
##fing
##fre
##fed
##fil
##finger
##fancy
##dro
##dad
##ddy
##drop
##dessert
##directional
##wan
##waff
##wny
##wars
##wining
##winter
##x4
##xie
##xili
##hc
##hing
##hes
##hind
##hear
##hout
##hara
##hanging
##herst
##hyd
##huge
##hurst
##heart
##yers
##yona
##bc
##bom
##bers
##bie
##bran
##brick
##bles
##bling
##bound
##bia
##bund
##basa
##je
##jab
##jets
##japan
##10
##19
##15
##2d
##80
##8th
##53
##inb
##inz
##inding
##ince
##inth
##inets
##inese
##incy
##inethree
##ington
##itant
##itors
##itted
##itates
##ittered
##itters
##itute
##erate
##erted
##erican
##ergency
##anc
##animals
thw
throu
thief
onit
onseveral
oncea
onsome
onyoung
ongoing
onsie
onramp
##lean
##leying
##levision
##leans
##legr
##ati
##atues
oft
##aren
##arse
##arie
thew
theory
inching
inthere
inthis
invent
incision
inclement
##rew
##reached
anal
anther
##roke
##rods
##roses
##enous
##enumerous
andy
android
##aler
##alan
##alpine
##eding
##edics
toed
toge
toile
told
tosh
token
tonic
toddle
toena
sting
stout
stale
staw
stella
stiing
##omm
##omable
##asure
##asement
##asco
##aseda
##onic
##once
##onstruction
##onstructed
##owling
##owntwo
##owdered
##cky
##etow
##etop
##etable
##etag
##etera
##etry
##etta
istwo
##orss
##orses
##orized
##orunda
##orpion
##irator
##irger
##irplane
##china
##chos
##ouds
##ourt
##isea
##isode
mant
manan
manes
manman
manthree
manthis
mansome
managed
manatee
managers
##lades
##laina
##laims
##opped
sita
sitiing
##raph
##racks
##raine
##rame
##racy
##raught
##eli
##elic
##elsa
##elanda
##oos
##idera
##idetwo
##ilot
##ilment
##ilian
neap
##oty
##oted
##otea
whack
whist
whinea
whike
wherea
##erstwo
##ols
##olution
stanc
stances
stanley
stancea
stanford
##igs
##igree
##igth
##igraph
areast
areathis
##uto
##utwo
##icting
##icide
##icial
##iciously
##iclose
##ardant
##abric
##abaad
ata
atable
buffer
skit
skina
pep
peed
peck
peices
peara
pealing
pepole
peoople
standingseveral
##ideo
trading
travis
traps
travela
##eby
##ebos
peoplethis
peoplemany
peoplewoman
peoplelarge
peoplehorse
twos
##urinal
##urpo
##urpee
##xtion
shag
shits
shined
nexta
whiteblack
##verty
##verished
##vereign
itin
itth
itvery
itmultiple
itcows
itlooking
itpicture
itcolorful
itorange
itassorted
itassortment
itdouble
itrows
itmodern
itcattle
itvegetables
itinside
itcomputer
ittable
itbright
itgraffiti
itbaked
roan
rober
roda
##ndogs
##ffs
##ffles
plunge
plasma
hols
##locking
tablew
tableone
tablemen
tablefive
tablemultiple
tablechildren
tablelooking
tablebananas
tableplates
tableadults
tableassorted
tableopen
tablethat
tablemeat
tablewine
tablebowls
tabletoddler
tablepastries
chal
chid
chile
chry
chines
chels
chills
chutes
doa
dos
cous
coupl
couole
##herds
streetd
streetside
streetstwo
streetwhite
streetfive
streetlooking
streethorses
streetpicture
streetelephants
streetfire
streetbusy
streettruck
streetlamps
lading
lade
beig
beign
beats
beater
fila
fiest
fiji
borough
bobbing
pare
parched
topon
topfour
topsomeone
##seed
##sela
smelly
smud
smiletwo
##celaina
someh
somewherea
somehow
##ackle
personsome
bater
baton
batten
batthree
batsome
batboy
##antsa
##adas
##adian
##amame
##american
##rier
##riet
##riad
##rift
##riestwo
##rimin
downs
downman
catting
wating
waterse
##andy
##andria
upthis
upheld
uplands
pia
piped
piper
pierseveral
flings
fluff
flares
flinders
flanders
##elds
##ione
rio
rive
riving
ripping
rima
snat
sneers
snugly
groupd
##ruction
##rups
##rusted
##rustic
carg
cares
caret
carss
carman
carpeople
carseveral
carthis
carbs
carwhite
carmel
carlittle
carrous
carparking
carebear
doghouse
dogwoman
dogsthere
outlin
outsome
outhousea
outbuilding
outlook
output
outreached
fielders
fieldgiraffe
fieldzebra
fieldplayers
fieldpitcher
fieldnumerous
fieldsoccer
##vement
snowblack
snowlarge
tenn
tenns
smalls
##nistic
clogging
trainera
hispan
frontthree
##ulic
parker
parkblack
parkchildren
tennispeople
tennisfour
tennisgroup
tennistennis
blacks
blacked
buskers
busestwo
basball
basked
basically
##rowded
signman
signseveral
##stling
##strain
##steam
roomone
roomblack
roomyoung
roommate
##pleasant
kitethree
kitessome
kittery
kitcken
kitteh
blck
bland
bliss
blush
airred
airfor
airskateboarder
grassin
grassman
grasspeople
grasssomeone
grassbrown
grasselephants
grasscattle
rede
plateform
plateclose
platecolorful
platehot
platehalf
bygone
waterboy
watermen
waterperson
watermultiple
waterdog
watercolor
waterwater
waterloo
##ento
youngest
batht
bathers
bathrob
##dynamic
##sson
##ssix
bedf
bedmany
buildingold
buildingblack
buildingyoung
buildingfive
buildingsthis
buildingtrain
buildingstraffic
skatboarda
hastily
playes
playtwo
##mbles
##mboy
comman
comcast
compter
playingthe
##pton
##ptment
##ptoes
##ptus
##ptruck
##theres
skatebord
skateborder
bathroomthree
bathroomsome
bathroomdoorway
sus
suf
supris
supine
suicide
##zzing
##ycows
fora
forced
forcea
forhead
foodmany
foodview
foodfive
cox
coy
covea
pizzam
pizzari
##tha
##then
##thee
##thical
##thole
##those
kitchens
kitchenmany
skateboardthis
skateboardboy
skateboardperson
beading
beady
motels
moths
woodan
woodthe
woodworking
greenstwo
greensthe
limp
liken
lima
lichen
pok
poled
pored
poker
pooping
poetry
poverty
eleph
election
giraffs
giraffest
giraffethis
parkedthe
pizzagroup
otherman
otherthis
skipping
##imple
overf
overcome
overrun
beaches
beachyoung
beachhorses
eater
eatsa
eatpeople
eatenthe
clockpeople
benda
toilettoilet
couplea
pica
pico
picutre
pictorial
elephantseveral
elephantstwo
elephantsthree
##achild
cav
caves
capes
cavern
##rans
##emergency
roadone
roadwoman
roadlarge
roadsomeone
roadstreet
roadsmall
roadelephants
roadcity
conical
conscious
##ilda
wagg
waera
balll
ballseveral
ballfemale
ballprofessional
ballpitcher
ballathlete
compat
wearign
pictureman
picturesthe
cityold
citysome
citylarge
citystreet
gambling
umbellas
disor
disch
disfig
boardmany
boardboy
boardgroup
boardeda
alice
allee
alban
allen
alsee
wearinga
benchthis
benchwoman
benchblack
towtruck
##risbee
slying
slople
slidea
slicking
sliders
slurpee
playertwo
motorcyclesthe
windbre
laptoppeople
laptopseveral
laptopsthe
truch
##ldren
intimate
computes
##illance
sitsa
##shes
##shell
##shoes
##shoot
##showing
##shua
##shorses
##shackle
sander
sandich
sandthree
sandsomeone
sandbox
sandpip
##uming
##umen
##ineken
windowpeople
windowseveral
windowsthere
windowbathroom
windowkitchen
sinkman
sinkthree
sinksthere
sinkkitchen
glassthis
glassblack
glassessome
airpla
grady
gradd
grazzing
##tera
oppen
opulent
areaold
gamefour
gamecock
gamefans
frisky
frissbee
boatman
boatseveral
boatmany
boatboats
chairman
chairwoman
chairlarge
chairdog
chairteddy
frisbey
##union
##unct
##unny
##unlight
##unias
stopwatch
scu
scic
scull
scored
scales
scopes
scaven
scroung
sconce
scowling
scorpion
lightseveral
lightstreet
lightpost
treee
handsthis
tailing
tawny
tapton
computerpeople
##pedia
horsegroup
litt
photobom
deskman
deskseveral
deskcat
desktable
deskdesk
dek
dext
dept
deera
devis
deoc
defe
depl
degre
deicing
degree
wallsthere
wallfive
wallbathroom
wallinside
##erya
##eryoung
coverthe
raked
openly
spher
spiced
spike
spliced
spurts
sprung
##esty
##estop
cakewoman
cakeyoung
cakechildren
##waya
truckman
truckthree
swar
swats
swells
swana
swigning
firewood
rein
reck
reel
repe
reese
reced
revea
reward
replace
recedes
flocks
floyd
frisbeeone
frisbeemany
frisbeemen
banking
surfboarded
surfboardssurfers
phoneyoung
lotfour
lotmany
lotions
outsideblack
##ggers
##ggled
counts
diver
dizzy
dixie
umbrellaone
umbrellablack
umbrellayoung
treesblack
treessmall
treeselephants
treesgiraffe
treesnumerous
##eating
cowthe
cowstwo
coworkers
##saw
suitman
bananna
behindthe
behindthere
clar
clim
clive
offthere
offpeople
orangetwo
##plain
##placed
courtside
courtyoung
courtchildren
skylin
skywoman
skylarge
skyview
skylooking
skylights
##apea
##approp
cutlet
cuttign
contently
contorting
contruction
abuse
abilities
bowlthree
bowlthis
bowlstwo
bowlwoman
treei
treeman
treemany
treegroup
treemultiple
apath
apex
##vesa
##upward
mao
makers
maxim
fennel
intoa
couchcat
togetherone
togethermen
togetherelephants
##qued
##quent
sandwichsomeone
mounts
mountian
backgroundman
backgroundblack
backgroundsomeone
backgroundsmall
backgroundboats
backgroundhorses
backgroundadult
drips
teo
teasp
socket
soila
soci
sovereign
viewan
platebe
platelarge
skisan
skisseveral
skisadult
kiteman
kitechildren
dounts
thistle
mirr
sheepsheep
mirrort
prest
prepack
preper
preteen
##agin
##aganda
displayc
birdhousea
birdseed
levers
levi
piecess
goss
oceanside
oceanfour
lugging
lumbers
midi
mids
midnight
midtown
##kettle
passe
racketthree
racketmale
displayseveral
airplanepeople
counterfour
counterassortment
refe
refg
refueled
refirger
wiis
wiper
wimbled
wiisome
wields
wiione
mirrorpeople
mirrorsome
##ethat
##ethey
anotherthere
anotherthis
dirtsome
dirtfour
animas
sidewalkman
sidewalkthis
mountainsthere
mountainssome
standan
standign
standind
standong
standmany
##ours
flowersthree
flowersthis
flowersmany
flowersyellow
metrol
babes
salet
sailed
sawed
sauna
savings
sahara
towerthere
fruitpeople
tracksome
tracksred
horsesan
horsessome
hillstwo
hillmany
immers
imitation
babys
babytwo
dayman
daywoman
daylit
daygroup
daygiraffe
dayzebra
daybreak
groundman
groundfour
groundblack
groundsuit
guid
guilt
headthree
headstand
headrest
fencegroup
grazea
##blender
##paround
##parasa
hangout
hangars
snowboardan
snowboardsthree
fax
fault
fawn
failed
favors
waveperson
carsomeone
vegetablespeople
vegetablesfour
vegetablesmany
vegetablesfood
vegetablesfresh
zebrasthe
restaru
stuffthere
stationery
stationthree
stationtrain
slopestwo
##arious
elephantspeople
bananasthere
bananasbunches
unra
unim
unsure
unorganized
unmatched
unpleasant
##vened
cupp
cupan
cupped
cupsome
tieing
tiepeople
tieclose
env
encou
drills
prove
progra
prosp
proof
##ipurpo
##mented
##mentsa
hatthere
corralling
corndogs
##atories
themi
themfood
boxseveral
besidea
signsome
signspeople
crowdtwo
crowdthere
acqu
acne
acorn
acacia
sunris
sunex
sunflowersa
lover
looping
ark
arge
arret
bikeman
##essliced
worrying
worried
worship
brocco
broccilia
abovean
knock
guya
##ustwo
##ustrial
eman
doorstwo
kiddy
cowsman
colorings
telephon
televsion
glassesman
cleats
clenched
wiiwoman
slopefour
pastura
leaky
leavened
talons
polewe
poletraffic
racism
papa
tracker
trackpeople
tracksthis
trackpad
trackyellow
ridges
riddled
##cesome
##ptych
ovensa
##visor
goinga
bicyclethe
bicyclepeople
peron
pergo
peruv
perfecting
highrise
caba
cabanas
walkin
walkign
walkpeople
walkthree
umbrellasmall
umbrellasgroup
umbrellasomeone
watchingpeople
whoever
marc
marta
mariner
bart
barh
bared
bartwo
barco
barka
barcla
barnthree
controlthe
controlsthe
kitesthis
kitesurf
kitesomeone
kiteskites
trickthree
tricksthe
televisionsomeone
breading
brewing
brewer
smilingthe
smilingyoung
bottlestwo
bottlesthere
corneran
cornerpeople
talkingpeople
agent
agitated
dines
catchup
airportmany
tvman
tvthree
tvcat
stovekitchen
setter
setthe
setseveral
chairsmall
chairsoutdoor
attact
buildingscars
applestwo
applesthere
ladys
allure
##umbrella
houston
monti
nightcl
nightime
nightthis
nightcars
nightlife
nightstreet
fores
forearm
##usual
thrower
jeter
jetted
jetways
paperan
paperthere
##fty
itemsthere
##aco
##acon
##acity
##acular
bookan
booksthe
bookssome
watchful
watchthree
watchsome
homeown
linethree
himone
riverthis
rivermany
riverfront
railtwo
railcars
poling
polls
pollen
cheesean
canan
canine
canyona
rampthere
rampthis
ramshackle
pullout
traythis
bedrooman
bedroomtwo
restaurantpeople
restaurantsome
restaurantfour
restaurantyoung
hele
heals
heinz
heineken
motorcyclespeople
motorcyclesfour
drinkthree
drinksthree
pitchan
pitchbaseball
orca
orleans
dishware
rowseveral
plantation
muggy
balm
racquetsa
racquetstwo
brushan
resear
resist
remotean
lightsseveral
lightsmany
##grape
hella
helium
intersect
faceman
rainan
rainsa
rainthree
mouthman
mouthyoung
rampseveral
housepeople
screenan
screenman
intersectionan
someonewoman
lineup
doughnout
##ocracy
seathe
seathere
rocked
rockers
rocksthere
rocketa
rockstar
surfingtwo
greta
noir
nosed
noah
nozzles
panelling
tubman
tubthis
ama
amherst
boogey
haz
##weled
##weeds
darkening
madean
##clid
##clus
##clouds
waysa
waypeople
waylooking
matted
matte
matched
sleepingtwo
silvera
jacketthe
##teens
##television
##erto
cloththe
cloththere
zooone
zoofour
zooelephants
zookee
bridgepeople
enclosurezebras
postman
postures
postersa
postcards
hairthere
hairdress
##ppers
##onde
##toy
forestthere
donutsdonuts
##chedelic
basketan
breadthere
breadthis
breadstick
##ector
salted
uniformstwo
walksa
walksome
busesmany
multipurpo
scenethe
furnit
furnacea
candela
##ronting
furnitures
starving
starsa
starta
exca
exist
exited
branchsmall
sticktwo
stickstwo
orangesthe
orangesthere
shopp
shopsa
shoppe
shoppeople
tripping
trims
triptych
pillowan
pillowtwo
pillowthe
pillowsthere
pickels
teakettle
mousecomputer
wavesome
wavesurfer
engined
attachedtwo
attachedthe
attachedthere
inclined
lakepeople
lakefour
lakefront
monitoran
forkful
forkplate
commence
commands
freck
freaking
freckled
obstru
obso
cleanera
clears
shelftwo
shelflarge
hobo
hoist
##spl
##spic
##sports
stonehen
cooka
cookera
cookwarea
flowerthe
marketthree
marketfour
marketmany
shaping
shaft
scenean
flagged
flaky
flamboy
workroom
restinga
rocksseveral
rockslarge
femalea
windowsomeone
fruitsseveral
fruitsomeone
##artistic
layne
settingsa
friesthere
##joined
##john
penis
bushthere
bushessome
trailor
urges
parta
partying
partsa
teethyoung
helmetthe
helmetstwo
platforman
platformtwo
paththe
stacker
##ricta
##ddled
shortland
shortstop
towelsthe
underneat
belts
beloved
belgium
steeta
noticed
toppingsthe
surfboardsmany
surfboardsomeone
yards
cartman
distraught
districta
fribe
friestwo
fribee
frizzy
statuean
tibet
tiptoes
singles
turnip
wildthree
wildlif
lapsa
lapman
mountainsseveral
mountainskiers
computersthree
entered
##lington
doughnutan
newton
vehiclean
vehicleseveral
vehiclesthe
shorean
shorethree
shorebird
peppera
timean
garbo
##istration
putty
controllertwo
hotelthe
neckthe
neckstwo
familythe
pizzasthe
dinnerthree
landthree
landmarks
ninth
modernly
seam
othersthe
endless
##idescent
townan
benchesthe
watchesan
kindle
peddles
takeov
tanned
tankers
sailsa
sailstwo
cellphonean
cellphoneman
cellphonewoman
leftthere
bathtubthe
boardsseveral
boardsmall
laptopspeople
laptopsfour
flatland
sofab
racked
racktwo
wheelthree
aftermath
seemed
packsa
phonesthe
phonesthree
phonesseveral
passengersthe
cabinettwo
cabinetstwo
appliancesthere
tricksnowboarder
trickskateboarder
toppingsan
##roada
##roadway
doughnutsan
wellington
paster
schna
placean
transa
stairways
stairsthere
pasturethe
pasturesome
pasturecows
pasturesheep
fishtwo
frut
frater
fridger
spoonan
dirtya
righteous
footage
footwear
footballa
matchthere
matchsome
##poster
schoolgirl
schoolgirls
cluttera
centerthere
pulley
blem
writ
pulleda
bottlesan
bottlespeople
artists
artworks
nearbythe
nearbypeople
fanny
wraped
wraparound
polesome
polesseveral
locals
paintingsa
churros
##berian
##members
trunkstwo
quest
quail
quincy
directiontwo
soupy
##scows
officera
feettwo
churchan
fireplacean
fridgean
alonean
skateboardsome
skateboardskateboarder
steaka
pillowsan
butch
butters
suitcasesan
drinkspeople
foals
foiled
foxes
fodder
containeran
bushesthere
weds
wedded
tomatoesan
tourism
haythe
##lander
specks
spews
servinga
##tiac
stallsa
blobs
format
devast
devoured
bakground
reflectiontwo
smog
smock
smoket
cemented
cementthe
christian
designing
##banka
harald
harrods
flagthe
roost
farms
farmthe
umpa
dessertthe
foodsmall
foodsomeone
strawsa
appeared
appearancea
urinaltwo
loada
loadsa
gardentwo
umpirethe
hamlet
gamesman
gamespeople
gamesfour
hardhats
gether
retain
retracted
retardant
##pered
##peries
peppered
poolthe
burlap
##ensively
##feet
shadethe
horsethis
##nedog
crap
cradled
crazed
client
##bride
##brand
prodding
frayed
signalsa
restroomthere
ceilingan
claps
desktopa
flocked
shelvesthere
accenting
bah
baile
bapt
bagging
baeball
ladles
lawns
toura
outdoorsan
deserttwo
propaganda
competes
eventan
cruel
modes
costa
rooftwo
twotwo
struggle
dollsa
weiners
discreet
partyan
partyseveral
miniatures
sprinting
figher
interf
interlocking
landingthe
racecar
racecourse
brokena
ponders
pondthe
pondseveral
portan
portal
portly
portthe
portug
portola
carrotsthere
cakesmall
narrowly
fights
##iaa
widewalk
##ucent
##ucaly
stairsan
glance
glittered
leashtwo
##dah
strait
straddle
strapless
netan
plainly
plainthree
salean
salethe
sweats
prarie
chainlink
tiesthe
tiesthree
carpetinga
veggiesthe
veggiesthis
capers
capris
capacity
speedily
casetwo
casethree
goodness
sunsetthere
sunsetpeople
racketsseveral
racketsfour
trailertwo
trailerthe
streta
misplaced
pepperonia
helda
peeps
warp
warn
warily
reflector
reflextion
positionsa
doorwaytwo
scootertwo
scooterthe
holean
holetwo
##opeople
propellar
outfitsa
grilltwo
candlestwo
draping
dracula
draperies
##iseveral
railingtwo
railingthe
bullhorn
harborseveral
apartmentan
islands
liddle
lidless
blurrya
furby
furiously
watersking
watersthere
watersix
waterskis
selfish
selfiethe
comforting
spotthe
spotty
spotlights
youa
youn
medial
mudtwo
prepareda
##bearded
jeweled
bacardi
papersome
papersthe
streetskate
sharks
sculture
liftpeople
##plar
##plish
##planted
utensila
mugsa
shoppinga
sculptural
depressed
logan
frostingthe
calming
calvert
streamer
lamba
##ivor
branchesan
tenttwo
tentthe
carafes
linesthe
##active
deeply
practically
ladiesa
indoorsthe
##flat
##flot
##floral
adorably
glazes
glazea
##crafted
masnedog
eyeglass
raisin
directionsan
directionsseveral
stocks
stolen
flagsseveral
pinan
pinot
pinching
pintwo
pinthere
pinthree
pinata
barnan
##athy
##athroom
##athlet
##athomable
laughter
consid
consumer
charle
charges
charred
liquors
stadi
stadning
tanktop
jetski
stadiumtwo
surroundingstwo
complement
microscope
housethree
houseboats
spectacular
formationsa
formationthe
##bians
petunias
porn
poring
porcelaina
porthole
hears
hearta
bellies
cheesesteak
ducka
dimmly
capturing
sportsman
museuman
museumthe
collies
collided
practicinga
celebrations
sculptured
topsmall
softly
humps
humanoid
cupboardsthe
ropean
delicacies
##tailed
copa
copies
rubbed
parasola
##beda
slopesthree
slopesomeone
##burst
planets
planked
planethis
daug
usetwo
automotive
countersthis
icings
tugs
marblea
tabasco
newsprint
asleepa
habitation
skirta
skirtthe
labtop
nailing
studding
organize
repainted
reprodu
tasted
fara
faraway
coachthe
##sthat
##sthey
londonthe
auxili
hershey
napkinthe
olivesthe
sprinklesfour
deliciously
holderan
potatosa
##vanized
##cargo
hamburgera
exhibited
jose
jogs
jovial
jostling
joshua
conflic
confusion
confronting
crat
fountaintwo
archery
beefa
gravely
hillsides
hillsnowboarder
traverse
traveller
fishinga
steeplean
safar
surfaceseveral
proclaims
doted
sada
volt
volume
volleying
entertainers
trolleya
claya
downthree
larg
rusteda
industry
jockies
meadows
sprayp
scarred
everywher
stirrups
attirea
meadowtwo
meadowthe
sugara
customs
neighbour
calmed
peelings
billy
billow
suspiciously
bandanas
gazebos
servethere
twinea
naturally
##strip
hugginga
jumbled
digits
##ailboats
wingspan
cushiontwo
straightens
arrowa
ribbed
buffeta
thickly
sunlighttwo
trunksa
timera
timesa
resortpeople
dispers
popa
ponytails
##stream
massively
strollers
rosemary
turkeya
embers
embark
braz
bradley
produces
progressing
progression
progressive
instructors
sailboata
ringsa
guarda
pleasing
witb
witnes
tabletable
presenta
presentsa
camerap
relig
languag
stripea
puj
pussy
tagstwo
recie
friendtwo
friendthe
friendstwo
learned
##zai
slayer
slaughter
skiistwo
railsan
homebase
barreling
barrelsa
fairthe
nametag
insulation
bikinia
talka
talktwo
hijab
antler
antics
stormtwo
thingstwo
thingsthe
beltpeople
volleya
uncrowded
hipsa
keg
keish
utter
blura
blunt
fenceblack
fencelarge
villagetwo
infr
info
registration
hauler
instagram
projectortwo
tatami
scissorsscissors
euclid
stocky
shrim
deterior
detector
actress
##afel
democracy
elegance
stema
willow
phonethis
vendora
mayors
mayona
anymore
collects
collectors
forksome
spacetwo
minature
minisk
repairsa
tighta
whitetwo
buttonsa
crasha
warehouses
mallthe
mallards
closure
secondary
diamondtwo
factories
knifethere
skaterboarder
greeneryan
drieda
bridgen
bridgeseveral
facestwo
badmit
conferenc
attends
posses
possessing
halve
history
historically
garnishments
mien
miror
##metal
##metrical
reclin
textures
textbooks
pineapplea
unfathomable
borne
cloudssome
depotthe
notebooka
bisected
tissuea
floaties
briefly
rendered
beanies
macbooks
protract
sharpen
sharpens
identity
identifying
identify
blooda
bloodied
postsan
savannahthree
grownup
risesa
eighty
carryout
provoc
happiness
happened
daughtera
##trails
##traditional
crackera
crackersa
seatinga
solder
soldering
deserves
gravya
robots
carousal
heats
heatera
shuttlea
onesa
impat
impact
imprinted
payers
placesa
stripesan
anchors
calligraph
helpful
eason
fogy
tigertwo
woks
career
wheelchaira
namesa
shapesa
podiuma
outsidet
textinga
environmental
cafethe
portioned
captions
captioning
privately
artworka
##oothing
syrupa
educ
edamame
##contents
informs
grasslandsa
sanyo
siberian
signagea
menusa
yorka
##inoa
sofasa
parasaila
bowlinga
jellya
treatsa
treatments
jeepa
panty
ottomana
memo
influenced
microwaveable
dancinga
ferrets
fileed
waterfowl
viewinga
squarish
trod
trodden
##paddle
toweda
bidets
torch
horizona
compacted
scrunch
windshields
blading
bladed
blakc
citgo
dunked
dunmore
meanwhile
happilya
futura
##fox
tramway
champaign
retrieved
pirched
peasa
defy
defend
defends
defender
breastsa
##ritated
relisha
relishing
therethe
toiletriesa
##posts
potterya
pageant
vicious
vandalism
kayaka
kayakers
departments
sledge
templar
ultral
##skateboarders
contempo
distantly
wrapa
memorable
bruises
bumpy
saddlea
saddlebag
saddlebags
##motion
stewart
pellegr
locationa
tugboats
timesthere
pontiac
statements
socializ
currentsa
bleachersa
demonstrators
20s
daddy
hunkered
casseroles
bbqtwo
palying
palte
##canadian
airfieldan
amble
dormer
dormant
yeara
crumble
crumbly
crumbles
bounce
spaghett
casserolea
beginnings
browser
nutcra
airplanethere
airplaneseveral
squirrela
cablea
wavethis
waveblack
percha
nonpar
parasailors
saucesa
utensilstwo
utensilsthe
finial
yeta
shelvinga
##cutting
framesa
fura
fucking
fuji
hurst
myriad
##picnic
rodea
relaxation
blendersa
ticketa
butterflya
fixins
fieldanimals
microwavesa
victorious
watermelona
##cote
skateparkthe
presidenta
metropolis
earthen
labelsa
lessona
wiga
wiggly
machinethere
madrid
woola
westa
underweara
conducts
cemeterya
backhanded
101
blazers
pacing
shooing
treytwo
fencesheep
noodlestwo
latex
ripea
rippled
broccolich
broccolif
broccoliclose
radiate
welcomes
seeded
supporta
canadaa
hidrent
unto
stylistic
sprinklestwo
sprinklesthere
sheltering
lengthwise
generic
generating
generously
mcintosh
typea
functiona
conditioning
conditionsa
newspapersa
gaggle
perso
tealight
sunshade
purchases
barbers
hammering
rvthe
sounds
soundly
chiar
snapshots
plattersa
ornamenta
jackpots
sparked
puppiesa
cantwo
whispers
whisky
placard
kitschy
sundress
peacocka
wouldn
dangers
dangles
gnara
wristwatch
##ology
laundromat
hedgehog
franks
##dressed
channela
windmilla
viking
paradethe
standards
garba
destroying
renovateda
##pitated
plunging
patricks
drapesa
dumptruck
##overhead
##fighter
##warts
terrains
needlepoint
lavatories
clutch
clutters
pencilsa
royalty
lasang
remodelinga
shrubby
vermont
elevators
wilds
budget
cheeka
obscure
congratulated
established
astros
lawnthis
accessibility
drumming
##pairs
stafford
continuing
continuum
continuous
canvass
groceriesa
contraptiona
poodles
foreheada
##hotdogs
columnsa
sodatwo
featuresa
aquariuma
elevatora
californiaa
titles
titans
tacky
masonic
masonry
lifeguards
regional
demonstrationa
dyer
dynamic
landscapetwo
rulera
sharka
launcha
lizards
ashton
ashbury
dividertwo
skeletons
bonzai
dingh
fellows
lancash
coalition
beadsa
encasement
pudgy
bombed
giggles
vasethere
sheepskin
jeansa
effected
effective
selector
cosplaying
motocycles
bulidingsa
bmx
pinsome
versus
##firemen
##fireplace
menswear
experts
packaginga
shovels
represents
represented
surfacesa
crookedly
parsnips
unpop
weeded
tasteful
tolieta
pricing
priced
tasblea
##produce
##freshly
wiimotes
darting
darts
esque
value
valance
recover
combineda
gnarled
erson
##lenn
tolls
chaos
parisa
sunbathes
popsicles
announcement
cashier
lassos
weave
theatrical
cheerios
feelings
straddled
distancethere
perfectlya
kilo
puzzles
##eroom
##eroses
##ersheep
dodger
beetroot
bikethere
periphery
joysticks
describes
utilize
installations
placidly
piercings
crockpot
korea
calender
swampfox
attachmenta
organizes
kenya
lolls
nunchuk
ukraine
supabaad
spiderman
cellphonetwo
cellphonestwo
wiithere
contemplative
luggagethree
ajara
ajax
falafel
fondue
outerwear
diffent
hogwarts
dominate
dominated
descriptions
boutique
muli
tinsel
negatives
buggie
suggestion
corresp
wineglassa
martial
exploding
sanctuarya
##beautifully
louvered
pompom
##ometers
lakeseveral
pizzeriaa
reservation
statuetwo
statuettes
assistant
assistive
russell
lassoing
calendars
culmin
mutant
##grass
##baord
surveillance
segways
coordinate
alaskan
alienware
divide
godzilla
daytimethe
moderator
advice
alligators
mimics
mista
slobber
virtually
##juice
shrink
chicksa
upholstery
disneyland
zebrastwo
spoiled
teddybears
adventures
unwra
uninspired
brimming
sanitation
paraglide
breezeway
ricetwo
ricethe
sherman
shakea
requesting
platebaked
platebaseball
unkept
racetracka
engraving
quantas
simulation
simulating
embroidery
scrapbook
longhorns
appreciate
fulfill
iridescent
vietnam
differing
chevron
believin
harbors
harbored
harbormany
##fections
milkshakes
balconiesa
improvised
nutrition
bulldogs
connections
hopefully
yoing
yoked
##bottle
bystander
slotted
treetop
splaying
bannana
remainder
luncheonette
expansea
exhibitiona
fittings
abovetwo
manufacturers
quesadillas
24a
ooking
ooze
sterling
surboarda
intrigu
intrigued
literally
telescopes
platerice
authors
tapestries
thoroughf
bordera
genius
pestle
rinsing
armrests
subjects
carriagethe
delightful
barbecues
chandeliersa
scrambling
communication
innocently
suggestive
diego
fanthe
gnaws
hesitant
kernel
sashimi
tumbler
tumbling
veterinary
week
wrangle
##pastry
##heavy
stitches
manikins
buckle
buckling
snowflakes
snowflake
umberlla
intertwining
appeal
floretsa
mmmm
monochromat
atmospherea
foothill
galore
galvanized
lyign
ww2
##pillows
##waiting
initial
mandarins
arenatwo
backgro
tapesa
swatting
swatches
reviewing
hydration
imagin
enclosement
knew
kneck
knecka
toothpastes
slammed
sixty
latticed
experiencing
experiencea
beetlejuice
association
lurking
lurching
nacho
tidal
stenciled
pewter
pewsa
rosy
rosary
smashing
cathing
apricot
advises
unsmiling
pastoral
applicancesa
directory
garagetwo
garagethe
garagethere
turntables
auctiona
dispenses
collapsable
collapsible
42nd
corset
rumbling
sarong
schedule
waddling
incense
arealarge
shingles
seventh
cakestwo
wipeout
unmown
unmowed
respirator
mustaches
netbooka
meditation
crinkled
challenged
dapper
dublin
fearless
ghan
ironically
ignore
krispee
lingus
lesbians
nippon
nipples
prays
inhabited
inhaler
whizzing
bubba
charta
cherubs
pianos
slicked
spindle
spindly
sunsets
televison
montrose
montgom
somberly
tarmacthree
souvenir
antiqued
antiquated
headscarves
jefferson
confinements
aerob
aerodynamic
aeroflot
astrolog
unattractive
33rd
707
jagged
optical
tinged
tinkers
##counter
##window
thriving
inquisitive
##laimed
##eblue
shuffling
survival
survivor
##stained
benefit
beneficial
refereea
impoverished
##ippines
sprigs
fingertip
planetary
aviation
1932
screaminga
encounter
encounters
migrate
achieving
eclair
glases
gondala
gondolas
lsu
linden
nationals
yeast
##lookers
##iko
##miniature
##figur
shovela
shishkabo
streeet
streetcyclist
watermarked
slouching
slouches
childrentwo
childrenthe
columbus
columbia
sunbather
agreement
polymer
tribal
tribute
commemorating
devouring
sidwalka
fingernails
vegitable
energetically
swiveling
curtainstwo
derailed
derailment
fangs
ideal
pruning
sagebrush
zerbra
##prepared
anthers
##otorcycle
##otorcycles
sketch
updating
gritsa
skateboad
motercycles
swabs
teetering
hydraulic
moorings
adopt
adopted
permanent
permanently
commerical
eyeliner
eyelashes
peddlers
turkish
hampster
hampshire
translucent
transferring
glittery
waterseagull
pinwheels
##competitor
expireda
observatory
observantly
cameramen
unconvention
collectora
satisfied
accommodate
stampede
zeebra
zeebras
psychic
psychedelic
revolving
emphasizing
##toothbrushes
cielinga
doritos
dignitaries
eephant
episode
economy
htc
moobs
mellows
moldings
ominous
ppk
santiago
tassels
tiewoman
vagina
##grizzly
tootbrush
stumpy
whilst
whitecaps
lauren
##selectric
upgraded
##students
bedsheet
forbidden
herringbone
desperate
destruction
alpaca
alphabet
scooby
delapitated
clergy
broccolitwo
emperor
noisy
frizzbe
gargoyle
appliancestwo
heavenly
cecilia
juxtaposed
speckle
depression
porcelin
savanaha
camerablack
overshadowed
1960s
1940s
ventilator
astronauts
photothis
briskly
mammoth
alexandria
frustration
cultivated
weekend
krispies
negotiating
restraunta
bachelor
camoflauge
nuggets
bighorn
billabong
bountiful
dtreeta
dictator
drowsy
ewes
geyser
hinged
hustling
jigsaw
jimmy
kielbasa
lillies
lumped
malfunction
nascar
nirvana
pidgeons
sardines
silently
trousers
werid
wadsworth
##random
##pickup
##wooly
inlaid
tostada
##cheesy
##lambs
standoff
shanks
chandler
paramedics
carousela
pheasant
cavalry
connor
ballerina
sandiwch
scalpel
talented
december
spartan
swedish
clashing
abdomen
birdfeeder
midwestern
wiifour
imperfections
unnatural
enrapt
sunbeam
knapsack
marionette
megaphone
crevasse
equiptment
indigenous
icecreama
accelerates
interrupted
lettucethe
mascara
pinnacle
petersburg
crocodile
dustbin
stormtrooper
festivities
cottages
domicile
broadcasting
hurricane
nikon
icebergs
staggering
glacier
snoozinga
gelatin
julienned
ryanair
altogether
rollerskating
absolut
adapters
potholders
skaeboarda
jalepenos
neoclassical
synchronized
airone
csx
cnn
cingular
cortland
damask
daintily
daredevil
ericsson
feathersa
fatso
fasioned
gurney
ibex
kebab
kansas
kosher
kernels
kodak
luminous
lloyd
morsel
method
oarked
osprey
pkwy
porsche
vortex
vuitton
vampire
wndow
wainsc
yeah
##iousa
##pizzas
##multicolored
##filtered
##drops
##hearted
##japanese
toshiba
toenails
neapolitan
roberts
chelsea
battenburg
carrousel
outlining
hispanic
airforce
bathrobes
commanding
suprised
likeness
disfigured
alseep
windbreaker
sandpiper
deplaning
degrees
repeal
receding
revealed
##appropriate
apathetic
prepackaged
preperation
refirgerator
wimbledon
groundsuitcases
guiltily
encoura
prosper
sunexpress
pasturage
pergola
peruvian
barcode
attacted
nightclub
zookeepers
multipurpose
candelabra
obsolete
takeovr
schnauzer
fraternity
##ucalyptus
masnedogade
reproduction
auxiliary
neighbourhood
miniskirt
badmitton
calligraphy
futurama
ultralight
pellegrino
lancashire
monochromatic
astrological
01
04
27
2x4
3a
36
37
4pm
69
61
64
63
60th
6pm
7am
7up
70th
8s
86
800
85th
91
98
9ng
9th
a3
aith
aes
apt
aiding
acket
awoman
axes
adog
ahome
ahs
aroung
bs
bn
b5
bing
balk
bother
beth
bert
bime
brist
bony
bise
bethree
bothered
cv
c3
csa
cda
caste
cze
cuffs
caffe
caching
cringes
dir
dall
dong
daz
dows
dama
dentwo
eh
eb
eq
ela
ether
eld
eup
eif
eey
eave
earm
eoman
esk
ewer
edib
eucalyptus
fm
ft
f5
fom
fon
fult
fumb
fines
fush
feds
fton
finer
feline
fisk
fowls
gou
gid
gil
gol
gable
gass
gue
gif
gian
gash
garm
ganes
gully
gals
gees
gino
ganging
gander
gulf
gimp
gassy
hr
hw
hb
hab
heb
hack
hul
hans
hire
hte
hoarding
hll
hier
hacks
hank
hilding
heela
ia
iar
iving
imb
ida
igu
ight
jan
jen
jey
jerry
jog
jta
jamb
ku
kg
kir
kut
kri
kear
kich
kets
karm
kaw
leth
lare
lowing
lord
lops
lana
lora
lolly
ligth
mink
mumb
mert
mowing
mists
mia
mta
malt
mowers
misha
ned
nom
num
nove
nub
nash
nman
nond
nix
nfl
nels
nyl
nipping
niles
oit
oer
ost
oone
oust
ous
oath
oclock
oeople
ouch
pn
pb
pj
pith
pone
poto
prick
putter
prance
paked
pma
pager
pnk
pplaying
penthree
qr
qwer
qatar
rr
rm
rt
rit
rer
rding
rall
rood
rup
rhe
rist
rda
rican
rices
rented
rangers
r2d
sall
sass
sru
sph
sreen
saff
sore
sped
sera
sang
sous
siss
sime
selves
sense
sicking
selt
sores
sreeta
saints
splend
soothing
ts
tb
tis
tad
tellow
tans
taster
tbe
tues
tiring
tics
taming
teli
uo
ud
uri
uke
uss
uner
uta
ubu
vl
ved
vou
vile
vad
vee
vill
vale
vary
vars
versa
vern
vita
vantage
vhs
wm
ws
wen
wir
wite
wris
wore
wman
wanda
wisk
xp
xing
yr
ying
yack
yell
yum
yound
zin
zeld
zine
zest
ziti
zib
zamb
##lor
##lture
##lte
##lime
##liding
##lton
##lowed
##later
##luck
##liders
##links
##lgrounda
##aid
##aped
##ailing
##ault
##ails
##acture
##aia
##agged
##agger
##cen
##cop
##cell
##class
##csa
##cors
##cated
##cooking
##castic
##cush
##cape
##cyclists
##cels
##cops
##cued
##coph
##ih
##iro
##iop
##iant
##ikes
##ioc
##iastic
##iety
##iker
##iethere
##iki
##iilding
##iquea
##ev
##eils
##elabor
##eggs
##rge
##rroom
##rink
##rari
##rator
##rarium
##rbush
##ok
##oach
##oast
##oak
##oda
##odel
##ovation
##oroni
##oshes
##uh
##uer
##udi
##uetwo
##uethe
##ucked
##uvering
##uettes
##udry
##uilt
##pn
##pat
##pong
##pup
##pits
##pork
##prot
##piled
##paste
##peeled
##pops
##polit
##pipe
##pres
##pret
##print
##mg
##mite
##mnt
##main
##moto
##mast
##mets
##mower
##mons
##mied
##mail
##makers
##morized
##sid
##selves
##sball
##sons
##sia
##ska
##smen
##sstreet
##sions
##sona
##signs
##sliced
##soup
##square
##smoke
##tin
##tar
##tou
##tting
##tri
##tsa
##tching
##turing
##toes
##tuce
##tches
##tattered
##tesa
##tards
##trees
##nant
##nair
##nks
##nation
##nap
##nching
##norm
##nelf
##nac
##nastic
##narrow
##native
##neap
##nacks
##kt
##kd
##kirt
##kitten
##kestwo
##kraut
##konda
##var
##vill
##vast
##vets
##vian
##vative
##vals
##video
##gro
##gal
##gab
##glo
##gam
##groom
##gled
##gour
##gess
##glas
##gian
##gley
##gersa
##gables
##gelarge
##groc
##fea
##fying
##fter
##fest
##fles
##figer
##fries
##fold
##flection
##fety
##fessional
##furry
##fuit
##fog
##fze
##faded
##fake
##finder
##faced
##fenced
##fitted
##fabric
##frisbee
##dg
##dan
##das
##doo
##dea
##dain
##done
##dily
##dried
##dude
##dlow
##diners
##wc
##wp
##wal
##won
##wea
##web
##wboard
##wage
##west
##wave
##wans
##warm
##wler
##weds
##walla
##washed
##xom
##xig
##xic
##xam
##xican
##xico
##hore
##howing
##hirtless
##hnut
##hirts
##habited
##08
##yes
##yst
##yss
##yach
##yles
##yder
##yered
##bro
##boo
##bru
##bled
##bine
##base
##best
##bies
##bout
##betwo
##bred
##block
##beater
##boret
##bakers
##jar
##jay
##jita
##qet
##90
##95
##97
##zag
##zip
##zac
##zda
##zuma
##16
##45
##34
##inx
##inite
##inty
##inally
##inarian
##ingredients
##inguy
##itan
##itic
##itea
##itable
##itty
##itched
##ituted
##eri
##erd
##eren
##eras
##eron
##erating
##erows
##erole
##anch
##another
##anous
##ancing
##anical
thir
thie
thte
throne
thirst
onb
onthis
onsomeone
oncolorful
onemany
onskier
##lender
##legs
##lego
##lecting
##legged
##leaf
##atz
##atch
##attle
##atess
##atched
##atti
##atoni
##ativity
##atically
##aro
##arks
##arted
##arita
##argic
##archy
thev
indy
insp
inland
inna
inka
incon
incows
inlets
inclosed
inmate
inappropriate
##rear
##reea
##reast
##reted
##resc
##restri
##remot
##recre
##refle
##repared
ants
anote
analy
##ithree
##ithere
##itheater
withs
withing
withina
##rod
##roon
##rora
##roph
##roach
##roast
##rored
##rofessional
##enn
##enage
##enget
##endo
##enches
##enne
##endog
##alas
##alay
##edy
##edia
toom
toil
togh
tothe
tous
toiel
tounge
togas
sti
sts
stow
stet
stink
stag
stoll
stiff
sthree
stalled
stagethe
stagetwo
stiched
##oming
##omea
##oment
##omino
##omobile
##esc
##esota
##escript
##dinga
##asan
##asel
##asethe
##asino
##asians
##onding
##onlookers
##owars
##owels
##oworkers
##ckgrounda
##eto
##eters
##etts
##eteddy
##etray
##eteen
##etrical
##etruck
[...]
